const unsigned char model[] = {
  0x1c, 0x00, 0x00, 0x00, 0x54, 0x46, 0x4c, 0x33, 0x14, 0x00, 0x20, 0x00,
  0x04, 0x00, 0x08, 0x00, 0x0c, 0x00, 0x10, 0x00, 0x14, 0x00, 0x00, 0x00,
  0x18, 0x00, 0x1c, 0x00, 0x14, 0x00, 0x00, 0x00, 0x03, 0x00, 0x00, 0x00,
  0x18, 0x00, 0x00, 0x00, 0x20, 0x00, 0x00, 0x00, 0xa4, 0x00, 0x00, 0x00,
  0x20, 0x00, 0x00, 0x00, 0x4c, 0x00, 0x00, 0x00, 0x44, 0x00, 0x00, 0x00,
  0x02, 0x00, 0x00, 0x00, 0x98, 0x02, 0x00, 0x00, 0x54, 0x01, 0x00, 0x00,
  0x01, 0x00, 0x00, 0x00, 0xa8, 0x00, 0x00, 0x00, 0x0a, 0x00, 0x00, 0x00,
  0x04, 0x35, 0x00, 0x00, 0x00, 0x35, 0x00, 0x00, 0xf4, 0x33, 0x00, 0x00,
  0x74, 0x33, 0x00, 0x00, 0x40, 0x04, 0x00, 0x00, 0xfc, 0x02, 0x00, 0x00,
  0xec, 0x34, 0x00, 0x00, 0xe8, 0x34, 0x00, 0x00, 0xe4, 0x34, 0x00, 0x00,
  0x3c, 0x00, 0x00, 0x00, 0x00, 0x00, 0x00, 0x00, 0x01, 0x00, 0x00, 0x00,
  0x0c, 0x00, 0x00, 0x00, 0x08, 0x00, 0x0c, 0x00, 0x04, 0x00, 0x08, 0x00,
  0x08, 0x00, 0x00, 0x00, 0x08, 0x00, 0x00, 0x00, 0x09, 0x00, 0x00, 0x00,
  0x13, 0x00, 0x00, 0x00, 0x6d, 0x69, 0x6e, 0x5f, 0x72, 0x75, 0x6e, 0x74,
  0x69, 0x6d, 0x65, 0x5f, 0x76, 0x65, 0x72, 0x73, 0x69, 0x6f, 0x6e, 0x00,
  0x6a, 0xcc, 0xff, 0xff, 0x04, 0x00, 0x00, 0x00, 0x10, 0x00, 0x00, 0x00,
  0x31, 0x2e, 0x35, 0x2e, 0x30, 0x00, 0x00, 0x00, 0x00, 0x00, 0x00, 0x00,
  0x00, 0x00, 0x00, 0x00, 0x0f, 0x00, 0x00, 0x00, 0x4d, 0x4c, 0x49, 0x52,
  0x20, 0x43, 0x6f, 0x6e, 0x76, 0x65, 0x72, 0x74, 0x65, 0x64, 0x2e, 0x00,
  0x00, 0x00, 0x0e, 0x00, 0x18, 0x00, 0x04, 0x00, 0x08, 0x00, 0x0c, 0x00,
  0x10, 0x00, 0x14, 0x00, 0x0e, 0x00, 0x00, 0x00, 0x14, 0x00, 0x00, 0x00,
  0x34, 0x00, 0x00, 0x00, 0x38, 0x00, 0x00, 0x00, 0x3c, 0x00, 0x00, 0x00,
  0x48, 0x00, 0x00, 0x00, 0x08, 0x00, 0x00, 0x00, 0x0c, 0x34, 0x00, 0x00,
  0x98, 0x33, 0x00, 0x00, 0xd4, 0x32, 0x00, 0x00, 0x74, 0x32, 0x00, 0x00,
  0x40, 0x03, 0x00, 0x00, 0xc4, 0x01, 0x00, 0x00, 0xf4, 0x00, 0x00, 0x00,
  0x7c, 0x00, 0x00, 0x00, 0x01, 0x00, 0x00, 0x00, 0x00, 0x00, 0x00, 0x00,
  0x01, 0x00, 0x00, 0x00, 0x07, 0x00, 0x00, 0x00, 0x03, 0x00, 0x00, 0x00,
  0x4c, 0x01, 0x00, 0x00, 0xa4, 0x00, 0x00, 0x00, 0x1c, 0x00, 0x00, 0x00,
  0x04, 0x00, 0x00, 0x00, 0x6d, 0x61, 0x69, 0x6e, 0x00, 0x00, 0x0e, 0x00,
  0x18, 0x00, 0x08, 0x00, 0x0c, 0x00, 0x10, 0x00, 0x07, 0x00, 0x14, 0x00,
  0x0e, 0x00, 0x00, 0x00, 0x00, 0x00, 0x00, 0x09, 0x01, 0x00, 0x00, 0x00,
  0x1c, 0x00, 0x00, 0x00, 0x10, 0x00, 0x00, 0x00, 0x04, 0x00, 0x00, 0x00,
  0x36, 0xcd, 0xff, 0xff, 0x00, 0x00, 0x80, 0x3f, 0x01, 0x00, 0x00, 0x00,
  0x07, 0x00, 0x00, 0x00, 0x01, 0x00, 0x00, 0x00, 0x06, 0x00, 0x00, 0x00,
  0xcc, 0xfe, 0xff, 0xff, 0x19, 0x00, 0x00, 0x00, 0x00, 0x00, 0x00, 0x19,
  0x01, 0x00, 0x00, 0x00, 0x9a, 0xcc, 0xff, 0xff, 0x10, 0x00, 0x00, 0x00,
  0x08, 0x00, 0x00, 0x00, 0x14, 0x00, 0x00, 0x00, 0x20, 0x00, 0x00, 0x00,
  0x02, 0x00, 0x00, 0x00, 0x03, 0x00, 0x00, 0x00, 0x03, 0x00, 0x00, 0x00,
  0x08, 0x00, 0x00, 0x00, 0x49, 0x64, 0x65, 0x6e, 0x74, 0x69, 0x74, 0x79,
  0x00, 0x00, 0x00, 0x00, 0xd4, 0xcc, 0xff, 0xff, 0x00, 0x00, 0x0e, 0x00,
  0x14, 0x00, 0x00, 0x00, 0x08, 0x00, 0x0c, 0x00, 0x07, 0x00, 0x10, 0x00,
  0x0e, 0x00, 0x00, 0x00, 0x00, 0x00, 0x00, 0x08, 0x18, 0x00, 0x00, 0x00,
  0x0c, 0x00, 0x00, 0x00, 0x04, 0x00, 0x00, 0x00, 0xac, 0xcc, 0xff, 0xff,
  0x01, 0x00, 0x00, 0x00, 0x06, 0x00, 0x00, 0x00, 0x03, 0x00, 0x00, 0x00,
  0x05, 0x00, 0x00, 0x00, 0x04, 0x00, 0x00, 0x00, 0x02, 0x00, 0x00, 0x00,
  0x0e, 0xcd, 0xff, 0xff, 0x10, 0x00, 0x00, 0x00, 0x07, 0x00, 0x00, 0x00,
  0x14, 0x00, 0x00, 0x00, 0x50, 0x00, 0x00, 0x00, 0x02, 0x00, 0x00, 0x00,
  0x03, 0x00, 0x00, 0x00, 0x03, 0x00, 0x00, 0x00, 0x38, 0x00, 0x00, 0x00,
  0x73, 0x65, 0x71, 0x75, 0x65, 0x6e, 0x74, 0x69, 0x61, 0x6c, 0x5f, 0x33,
  0x2f, 0x64, 0x65, 0x6e, 0x73, 0x65, 0x5f, 0x37, 0x2f, 0x4d, 0x61, 0x74,
  0x4d, 0x75, 0x6c, 0x3b, 0x73, 0x65, 0x71, 0x75, 0x65, 0x6e, 0x74, 0x69,
  0x61, 0x6c, 0x5f, 0x33, 0x2f, 0x64, 0x65, 0x6e, 0x73, 0x65, 0x5f, 0x37,
  0x2f, 0x42, 0x69, 0x61, 0x73, 0x41, 0x64, 0x64, 0x00, 0x00, 0x00, 0x00,
  0x78, 0xcd, 0xff, 0xff, 0x00, 0x00, 0x0e, 0x00, 0x16, 0x00, 0x00, 0x00,
  0x08, 0x00, 0x0c, 0x00, 0x07, 0x00, 0x10, 0x00, 0x0e, 0x00, 0x00, 0x00,
  0x00, 0x00, 0x00, 0x08, 0x24, 0x00, 0x00, 0x00, 0x18, 0x00, 0x00, 0x00,
  0x0c, 0x00, 0x00, 0x00, 0x00, 0x00, 0x06, 0x00, 0x08, 0x00, 0x07, 0x00,
  0x06, 0x00, 0x00, 0x00, 0x00, 0x00, 0x00, 0x01, 0x01, 0x00, 0x00, 0x00,
  0x05, 0x00, 0x00, 0x00, 0x03, 0x00, 0x00, 0x00, 0x00, 0x00, 0x00, 0x00,
  0x03, 0x00, 0x00, 0x00, 0x01, 0x00, 0x00, 0x00, 0x0c, 0x00, 0x10, 0x00,
  0x0b, 0x00, 0x00, 0x00, 0x0c, 0x00, 0x04, 0x00, 0x0c, 0x00, 0x00, 0x00,
  0x09, 0x00, 0x00, 0x00, 0x00, 0x00, 0x00, 0x09, 0x01, 0x00, 0x00, 0x00,
  0xda, 0xcd, 0xff, 0xff, 0x10, 0x00, 0x00, 0x00, 0x06, 0x00, 0x00, 0x00,
  0x14, 0x00, 0x00, 0x00, 0x68, 0x00, 0x00, 0x00, 0x02, 0x00, 0x00, 0x00,
  0x03, 0x00, 0x00, 0x00, 0x14, 0x00, 0x00, 0x00, 0x52, 0x00, 0x00, 0x00,
  0x73, 0x65, 0x71, 0x75, 0x65, 0x6e, 0x74, 0x69, 0x61, 0x6c, 0x5f, 0x33,
  0x2f, 0x64, 0x65, 0x6e, 0x73, 0x65, 0x5f, 0x36, 0x2f, 0x4d, 0x61, 0x74,
  0x4d, 0x75, 0x6c, 0x3b, 0x73, 0x65, 0x71, 0x75, 0x65, 0x6e, 0x74, 0x69,
  0x61, 0x6c, 0x5f, 0x33, 0x2f, 0x64, 0x65, 0x6e, 0x73, 0x65, 0x5f, 0x36,
  0x2f, 0x42, 0x69, 0x61, 0x73, 0x41, 0x64, 0x64, 0x3b, 0x73, 0x65, 0x71,
  0x75, 0x65, 0x6e, 0x74, 0x69, 0x61, 0x6c, 0x5f, 0x33, 0x2f, 0x64, 0x65,
  0x6e, 0x73, 0x65, 0x5f, 0x36, 0x2f, 0x52, 0x65, 0x6c, 0x75, 0x00, 0x00,
  0x0c, 0xce, 0xff, 0xff, 0x1a, 0xcf, 0xff, 0xff, 0x04, 0x00, 0x00, 0x00,
  0xf0, 0x00, 0x00, 0x00, 0x80, 0xdb, 0x89, 0xbe, 0x4c, 0xb2, 0x98, 0x3e,
  0x44, 0xc2, 0x5b, 0xbe, 0x00, 0xc6, 0x25, 0x3e, 0x00, 0x23, 0xc3, 0xbf,
  0xe3, 0x01, 0xf5, 0x3d, 0xe4, 0x05, 0x08, 0x3f, 0xfe, 0xef, 0xad, 0x3e,
  0x58, 0x04, 0xca, 0x3e, 0x82, 0x6d, 0x5b, 0xbf, 0xdc, 0x41, 0x41, 0xbe,
  0xa5, 0x5e, 0x7c, 0xbe, 0xc1, 0x39, 0x3d, 0xbe, 0xc0, 0x23, 0xbd, 0x3e,
  0x70, 0x9a, 0x9e, 0xbe, 0x16, 0x41, 0x06, 0x3f, 0xe1, 0x11, 0x29, 0xbe,
  0xe6, 0xb3, 0xa8, 0xbf, 0xe0, 0x57, 0x97, 0x3e, 0x25, 0x16, 0xb6, 0xbe,
  0x2a, 0xf8, 0x91, 0xbe, 0x26, 0xf7, 0xd4, 0x3e, 0xca, 0x0c, 0x5b, 0xbe,
  0xe0, 0x74, 0xde, 0x3d, 0x49, 0xdf, 0x57, 0x3f, 0xba, 0xad, 0xc7, 0x3e,
  0x55, 0x29, 0xa0, 0x3e, 0x2e, 0xe3, 0x5f, 0xbe, 0x38, 0xdd, 0x66, 0x3e,
  0xba, 0x75, 0xf2, 0xbc, 0xc1, 0x1d, 0x5a, 0xbe, 0x75, 0xb9, 0xd3, 0xbe,
  0xc3, 0x86, 0xaf, 0x3e, 0x80, 0xf4, 0x20, 0xbe, 0x28, 0xd9, 0x95, 0xbe,
  0x9d, 0x46, 0xd5, 0xbe, 0x6e, 0x08, 0x05, 0xbf, 0xe6, 0x57, 0x37, 0x3f,
  0x28, 0x58, 0x07, 0x3e, 0x74, 0x04, 0xaf, 0xbc, 0x7c, 0x65, 0x8a, 0xbe,
  0x44, 0x64, 0xc7, 0x3e, 0xb4, 0x08, 0x78, 0xbe, 0x00, 0x8d, 0x75, 0xbc,
  0xc1, 0xee, 0x05, 0xbd, 0x5e, 0x59, 0xa4, 0x3c, 0x97, 0x5a, 0x92, 0xbe,
  0xf8, 0xb2, 0xb3, 0x3e, 0xe5, 0x4b, 0xaf, 0xbe, 0xd7, 0xe7, 0x95, 0x3f,
  0xc8, 0xb6, 0xba, 0xbe, 0xfd, 0x79, 0xb2, 0xbe, 0x5e, 0x7c, 0xe3, 0x3e,
  0x54, 0xb0, 0x19, 0x3d, 0x10, 0xbc, 0x51, 0x3e, 0x29, 0x99, 0x23, 0xbe,
  0xc1, 0x76, 0xd4, 0xbe, 0xc0, 0x16, 0x49, 0xbe, 0xeb, 0x93, 0x7e, 0x3d,
  0xa1, 0x90, 0xa2, 0xbe, 0x52, 0xcf, 0xff, 0xff, 0x10, 0x00, 0x00, 0x00,
  0x05, 0x00, 0x00, 0x00, 0x14, 0x00, 0x00, 0x00, 0x30, 0x00, 0x00, 0x00,
  0x02, 0x00, 0x00, 0x00, 0x03, 0x00, 0x00, 0x00, 0x14, 0x00, 0x00, 0x00,
  0x1b, 0x00, 0x00, 0x00, 0x73, 0x65, 0x71, 0x75, 0x65, 0x6e, 0x74, 0x69,
  0x61, 0x6c, 0x5f, 0x33, 0x2f, 0x64, 0x65, 0x6e, 0x73, 0x65, 0x5f, 0x37,
  0x2f, 0x4d, 0x61, 0x74, 0x4d, 0x75, 0x6c, 0x00, 0x4c, 0xcf, 0xff, 0xff,
  0x5a, 0xd0, 0xff, 0xff, 0x04, 0x00, 0x00, 0x00, 0xe0, 0x2e, 0x00, 0x00,
  0x53, 0x30, 0x34, 0xbe, 0x86, 0xfb, 0xf4, 0x3d, 0xdd, 0x53, 0x2b, 0xbe,
  0x16, 0xf0, 0x0f, 0xbe, 0xb7, 0xf8, 0x37, 0xbe, 0x53, 0x0c, 0xd0, 0xbd,
  0x03, 0xd2, 0x46, 0xbe, 0xb7, 0x2a, 0x44, 0xbe, 0x10, 0x69, 0x49, 0xbe,
  0xfa, 0x68, 0xc4, 0xbd, 0x40, 0x21, 0xc9, 0xbd, 0xa2, 0xde, 0xf6, 0x3d,
  0xfd, 0xff, 0x08, 0x3e, 0x89, 0x71, 0x21, 0x3e, 0x07, 0x76, 0xf1, 0xbd,
  0x9d, 0x36, 0x1d, 0x3e, 0x23, 0x83, 0x18, 0xbe, 0xb0, 0xc6, 0x96, 0xbc,
  0x7d, 0x56, 0x35, 0x3e, 0xf3, 0x63, 0xf3, 0xbd, 0xa3, 0x7e, 0x05, 0x3e,
  0xb4, 0xd4, 0x90, 0xbd, 0x00, 0x60, 0xd0, 0xbb, 0xda, 0xe6, 0xba, 0x3d,
  0x72, 0x5a, 0x9f, 0x3d, 0x80, 0x53, 0x0d, 0x3d, 0xf3, 0xcb, 0x26, 0x3e,
  0xe7, 0x60, 0x2a, 0x3e, 0xa3, 0xe6, 0x45, 0x3e, 0xf4, 0xac, 0x1a, 0x3d,
  0xc0, 0x7f, 0xd7, 0xbd, 0xd7, 0x5d, 0x33, 0x3e, 0xc9, 0xd8, 0x3a, 0x3e,
  0xe6, 0x6f, 0x82, 0xbd, 0x80, 0x9d, 0x0d, 0xbd, 0x00, 0xa0, 0xe1, 0x39,
  0x3a, 0xf4, 0xc0, 0xbd, 0x80, 0x77, 0xb1, 0xbd, 0xd0, 0x7c, 0x6c, 0x3c,
  0xf9, 0xdc, 0x1c, 0x3e, 0xed, 0xed, 0xa3, 0xbd, 0x73, 0xb8, 0xa6, 0xbd,
  0xbd, 0xc2, 0x29, 0x3e, 0x62, 0x28, 0xb5, 0x3d, 0x06, 0xfd, 0x99, 0x3d,
  0x40, 0x28, 0xeb, 0xbd, 0x80, 0x3c, 0xca, 0x3c, 0x18, 0x82, 0x9b, 0xbc,
  0x03, 0x44, 0x1f, 0xbe, 0xf4, 0x87, 0x2d, 0x3d, 0xc0, 0x7e, 0xf2, 0xbd,
  0x0d, 0x64, 0x9f, 0xbd, 0xc6, 0x64, 0x89, 0xbd, 0xba, 0x3a, 0xc5, 0xbd,
  0xcc, 0xfa, 0x73, 0xbd, 0x46, 0xf2, 0x21, 0xbe, 0x58, 0x48, 0x23, 0xbd,
  0xc3, 0x33, 0x02, 0x3e, 0x28, 0x65, 0x16, 0x3d, 0x10, 0x08, 0x35, 0xbe,
  0xe3, 0xfe, 0x29, 0xbe, 0x74, 0x29, 0x39, 0xbd, 0x86, 0xac, 0x16, 0xbe,
  0xf6, 0x13, 0x0f, 0xbe, 0x80, 0x9e, 0xc9, 0xba, 0x2d, 0x2d, 0xa7, 0xbd,
  0x37, 0x41, 0x40, 0xbe, 0x6a, 0x91, 0x47, 0xbe, 0x4a, 0x3e, 0x3d, 0xbe,
  0x27, 0xef, 0x11, 0x3e, 0x00, 0x10, 0xbf, 0xbd, 0x30, 0xa7, 0xd1, 0xbc,
  0x60, 0x3e, 0x81, 0xbb, 0x7d, 0x43, 0x12, 0xbe, 0x98, 0xa0, 0x8f, 0x3c,
  0xf0, 0x88, 0x1c, 0xbe, 0x1a, 0x78, 0x3d, 0xbe, 0xe8, 0x62, 0xc8, 0x3c,
  0x34, 0xbd, 0x07, 0x3d, 0x28, 0xff, 0x09, 0xbd, 0xa0, 0xa7, 0x81, 0xbb,
  0xb2, 0x43, 0x8d, 0x3d, 0xd2, 0x43, 0xb3, 0x3d, 0xe2, 0x3b, 0x80, 0x3d,
  0x00, 0x94, 0xee, 0x3c, 0x4d, 0xbc, 0x45, 0xbe, 0x0c, 0x15, 0x4b, 0x3d,
  0xb3, 0x6a, 0xe7, 0xbd, 0xe0, 0xa3, 0xed, 0xbd, 0xc0, 0xc6, 0x0a, 0xbd,
  0x51, 0x0f, 0x02, 0x3e, 0x00, 0x6d, 0x92, 0xba, 0x5a, 0x80, 0x12, 0xbe,
  0x68, 0xe1, 0xd6, 0xbc, 0x50, 0x65, 0x9e, 0xbc, 0xf3, 0x68, 0xeb, 0xbd,
  0xa8, 0x2c, 0x08, 0xbd, 0x30, 0x38, 0x89, 0xbc, 0x03, 0x21, 0x0d, 0x3e,
  0xb3, 0xdd, 0x1a, 0x3e, 0x60, 0xa2, 0x48, 0xbc, 0x47, 0x8a, 0x31, 0xbe,
  0xe7, 0x9c, 0xe0, 0xbd, 0xf4, 0x50, 0x2c, 0x3d, 0xce, 0x87, 0xd6, 0x3d,
  0x69, 0xd3, 0x27, 0x3e, 0x44, 0x78, 0x77, 0x3d, 0x16, 0x47, 0x28, 0xbe,
  0x1d, 0x42, 0x4a, 0xbe, 0xb4, 0x38, 0x7a, 0xbd, 0x4a, 0xa5, 0x33, 0xbe,
  0xb3, 0xbb, 0xda, 0xbd, 0x80, 0xa7, 0x3b, 0xbd, 0x9a, 0x6e, 0xfe, 0x3d,
  0x8c, 0x32, 0x7e, 0xbd, 0x98, 0xb6, 0x76, 0xbd, 0x60, 0x23, 0x3e, 0x3c,
  0x8d, 0x37, 0x2f, 0xbe, 0x00, 0x06, 0xe7, 0xbb, 0xd0, 0x32, 0x67, 0x3c,
  0x5d, 0xa1, 0x1f, 0xbe, 0x30, 0x01, 0x61, 0xbc, 0xbd, 0x86, 0x2a, 0xbe,
  0xe7, 0xe7, 0x2a, 0x3e, 0xed, 0x60, 0xe3, 0xbd, 0xfa, 0xb4, 0xaf, 0x3d,
  0xee, 0x71, 0x86, 0x3d, 0x66, 0x34, 0x22, 0xbe, 0x00, 0x15, 0x0f, 0x3d,
  0xa0, 0x1d, 0xb4, 0xbb, 0xe6, 0xa5, 0x07, 0xbe, 0x18, 0xc1, 0x2e, 0x3d,
  0xd0, 0x7e, 0x6a, 0xbc, 0xc0, 0xb7, 0xa8, 0xbd, 0x9a, 0x28, 0xd9, 0x3d,
  0x3a, 0xa7, 0x98, 0x3d, 0xc0, 0x82, 0x84, 0xbb, 0xee, 0xff, 0xc8, 0x3d,
  0x32, 0xc0, 0xca, 0x3d, 0x87, 0xd4, 0x2d, 0xbe, 0xc0, 0x30, 0x09, 0x3d,
  0x27, 0x24, 0xac, 0xbd, 0xa7, 0x90, 0xf4, 0xbd, 0xe0, 0x6a, 0xf5, 0xbd,
  0x13, 0xf1, 0x3a, 0x3e, 0x00, 0xa7, 0x8f, 0x3c, 0x79, 0x28, 0x3c, 0x3e,
  0x8d, 0x2c, 0x22, 0x3e, 0xb7, 0xbd, 0x39, 0x3e, 0x0c, 0xb1, 0x1a, 0x3d,
  0x0d, 0x1a, 0x1b, 0x3e, 0x18, 0x37, 0xf5, 0xbc, 0x30, 0xad, 0x48, 0xbe,
  0x09, 0x5e, 0x24, 0x3e, 0x22, 0x1d, 0xb7, 0x3d, 0xe4, 0xb3, 0x66, 0x3d,
  0x00, 0xbf, 0x73, 0xbc, 0x63, 0x60, 0x17, 0x3e, 0xc2, 0xcd, 0xd9, 0x3d,
  0xb3, 0x1a, 0x10, 0xbe, 0xa0, 0xdd, 0xb0, 0xbd, 0xc6, 0xe2, 0xcd, 0x3d,
  0x80, 0x94, 0x44, 0xbe, 0x8c, 0x9d, 0x51, 0x3d, 0x40, 0xb9, 0x62, 0xbd,
  0x68, 0x8d, 0x3f, 0xbd, 0xce, 0xf2, 0x84, 0x3d, 0x2d, 0x25, 0x2a, 0x3e,
  0xca, 0xc5, 0x29, 0xbe, 0x74, 0xbd, 0x6d, 0xbd, 0xa0, 0x62, 0x0c, 0xbe,
  0x4c, 0x21, 0x3e, 0x3d, 0x58, 0x4b, 0x02, 0xbd, 0x4c, 0x3b, 0x23, 0xbd,
  0x06, 0x8f, 0x26, 0xbe, 0x86, 0x9d, 0xe5, 0x3d, 0x3a, 0xa7, 0xab, 0x3d,
  0x12, 0x66, 0xa7, 0x3d, 0xcc, 0xe8, 0x10, 0x3d, 0x50, 0xf8, 0xa7, 0xbc,
  0xc1, 0xb3, 0x1b, 0x3e, 0x42, 0x4c, 0xce, 0x3d, 0x6a, 0xa6, 0x14, 0xbe,
  0x30, 0xb3, 0xde, 0xbc, 0x74, 0x09, 0x44, 0xbd, 0xc0, 0x3c, 0x53, 0x3b,
  0xee, 0x38, 0xa4, 0x3d, 0x59, 0x63, 0x1b, 0x3e, 0x11, 0x00, 0x43, 0x3e,
  0x4c, 0x39, 0x47, 0x3d, 0x42, 0xaf, 0x99, 0x3d, 0xb9, 0xf0, 0x2e, 0x3e,
  0x3d, 0x73, 0x2e, 0xbe, 0x60, 0xcc, 0xc5, 0xbb, 0x42, 0xe2, 0xea, 0x3d,
  0x9c, 0xd3, 0x5b, 0x3d, 0x93, 0xee, 0x3a, 0xbe, 0x92, 0x90, 0x94, 0x3d,
  0x7a, 0x1c, 0xaf, 0x3d, 0xb7, 0xce, 0x3e, 0x3e, 0xa7, 0xba, 0xaf, 0xbd,
  0xc6, 0x55, 0xc1, 0x3d, 0x4c, 0x68, 0x52, 0xbd, 0x66, 0x0e, 0xb1, 0x3d,
  0x6e, 0x33, 0xaf, 0x3d, 0x18, 0x78, 0x9e, 0x3c, 0xfa, 0xcc, 0xa5, 0x3d,
  0x60, 0x91, 0x25, 0x3c, 0x00, 0x9d, 0x28, 0xbd, 0x4d, 0x14, 0x31, 0xbe,
  0x37, 0x27, 0x39, 0xbe, 0xe6, 0x0e, 0xfe, 0x3d, 0xf0, 0x74, 0x14, 0xbe,
  0xe9, 0xbc, 0x2c, 0x3e, 0x00, 0x60, 0xd4, 0xb7, 0x98, 0x28, 0x33, 0x3d,
  0xe0, 0x5e, 0xa5, 0xbd, 0x47, 0x5c, 0x4a, 0x3e, 0x0d, 0x7f, 0x08, 0x3e,
  0xb2, 0x5e, 0xb9, 0x3d, 0xbd, 0xf2, 0x17, 0x3e, 0x80, 0x3a, 0x53, 0xbd,
  0x46, 0x0d, 0xec, 0x3d, 0x60, 0x69, 0xa8, 0xbd, 0xd8, 0x54, 0x47, 0x3d,
  0x9d, 0xe6, 0x40, 0xbe, 0xb2, 0xc7, 0xcb, 0x3d, 0x3d, 0xb2, 0x45, 0x3e,
  0x23, 0xa4, 0x16, 0xbe, 0x00, 0xe5, 0xc8, 0x3c, 0x00, 0xa5, 0xc3, 0xba,
  0x6d, 0x34, 0x07, 0x3e, 0x66, 0x4f, 0xc8, 0x3d, 0x10, 0x13, 0x0b, 0xbe,
  0x30, 0xef, 0x66, 0x3c, 0xba, 0x6c, 0xa0, 0x3d, 0xb6, 0x4c, 0x27, 0xbe,
  0x5d, 0x22, 0x29, 0xbe, 0xcd, 0x21, 0x39, 0xbe, 0x29, 0x4a, 0x30, 0x3e,
  0x30, 0x38, 0x28, 0xbe, 0xd2, 0x4a, 0xf6, 0x3d, 0x30, 0x6e, 0x44, 0x3c,
  0xc6, 0x99, 0xc3, 0x3d, 0x40, 0xac, 0x8a, 0xbd, 0x59, 0x60, 0x41, 0x3e,
  0x0d, 0xbb, 0x47, 0x3e, 0x30, 0xf3, 0x4b, 0x3c, 0x8c, 0x77, 0x07, 0xbd,
  0x13, 0xe3, 0xdd, 0xbd, 0x28, 0x43, 0x04, 0x3d, 0x42, 0xec, 0x9d, 0x3d,
  0xf6, 0x57, 0x01, 0xbe, 0x0e, 0xf1, 0xdb, 0x3d, 0x40, 0x47, 0xcf, 0xbb,
  0xdd, 0x28, 0x27, 0x3e, 0x68, 0x77, 0xa2, 0xbc, 0x2e, 0xf3, 0xf2, 0x3d,
  0x47, 0x81, 0x37, 0xbe, 0xea, 0xf1, 0x0e, 0xbe, 0x00, 0x4c, 0x46, 0xbd,
  0xd2, 0x70, 0xef, 0x3d, 0x00, 0x09, 0xb0, 0x3c, 0xb0, 0xbe, 0x3c, 0xbe,
  0xc0, 0x6a, 0x11, 0xbe, 0xa8, 0xbe, 0x7a, 0xbd, 0x6d, 0xbf, 0xa0, 0xbd,
  0xa0, 0x49, 0x9f, 0xbd, 0xa0, 0xcc, 0x19, 0x3c, 0x6c, 0x4b, 0x8b, 0xbd,
  0x18, 0x3a, 0xfe, 0x3c, 0x02, 0xbf, 0xa8, 0x3d, 0xa8, 0x65, 0x1e, 0xbd,
  0xf1, 0x08, 0x1e, 0x3e, 0x30, 0xa0, 0x0d, 0xbe, 0xa6, 0x83, 0xea, 0x3d,
  0x98, 0xf9, 0xd8, 0xbc, 0xf4, 0xe2, 0x50, 0xbd, 0x04, 0xb9, 0x5a, 0x3d,
  0x50, 0x98, 0xf2, 0x3c, 0xe8, 0x9a, 0x67, 0xbd, 0xf0, 0x7e, 0x2d, 0xbe,
  0x8c, 0xd4, 0x6d, 0xbd, 0xba, 0xd9, 0xdc, 0xbd, 0x60, 0x41, 0x70, 0xbc,
  0x68, 0x2e, 0x11, 0xbd, 0x9d, 0xae, 0x1e, 0x3e, 0x01, 0xd2, 0x36, 0x3e,
  0x00, 0xfd, 0xf6, 0xba, 0x5a, 0x8a, 0x8a, 0xbd, 0x60, 0x25, 0x78, 0xbc,
  0x54, 0xc1, 0x92, 0xbd, 0x6d, 0xa4, 0x0b, 0xbe, 0x13, 0x01, 0x44, 0x3e,
  0x94, 0xe6, 0x09, 0xbe, 0x97, 0x41, 0x2e, 0x3e, 0x40, 0xfa, 0x48, 0xbd,
  0x44, 0x0e, 0x7c, 0x3d, 0x0d, 0x0a, 0x45, 0xbe, 0x30, 0xe5, 0xb9, 0x3c,
  0xfd, 0xa3, 0x34, 0xbe, 0x32, 0x78, 0xee, 0x3d, 0x7a, 0x88, 0x97, 0xbd,
  0x0d, 0x5d, 0xb9, 0xbd, 0x74, 0xfe, 0x7d, 0xbd, 0x67, 0x0a, 0x2c, 0x3e,
  0x51, 0xed, 0x3d, 0x3e, 0x68, 0xd5, 0xd3, 0xbc, 0x42, 0xda, 0x8f, 0x3d,
  0x23, 0x85, 0x43, 0xbe, 0x8e, 0x5d, 0xad, 0x3d, 0xd3, 0xc1, 0xfe, 0xbd,
  0x4c, 0x94, 0x22, 0xbd, 0x30, 0xdd, 0x1d, 0x3c, 0xb3, 0xce, 0x2a, 0xbe,
  0x2a, 0x2a, 0x1d, 0xbe, 0x87, 0x96, 0x44, 0xbe, 0x8a, 0x3b, 0x21, 0xbe,
  0xda, 0x58, 0xe5, 0xbd, 0x01, 0x66, 0x3e, 0x3e, 0x06, 0x72, 0x0b, 0xbe,
  0xa0, 0x0d, 0x76, 0xbc, 0xd8, 0x4a, 0x37, 0x3d, 0xc2, 0xe5, 0xea, 0x3d,
  0x00, 0x96, 0xb0, 0xbc, 0x57, 0xdc, 0x0c, 0x3e, 0x7a, 0x8a, 0xfd, 0x3d,
  0xb0, 0x2e, 0xc8, 0x3c, 0xf0, 0x16, 0x42, 0xbe, 0x6e, 0x83, 0x9d, 0x3d,
  0x8c, 0x48, 0x4d, 0x3d, 0xe0, 0xc1, 0xf6, 0xbd, 0x72, 0xb7, 0xc0, 0x3d,
  0xe6, 0x6b, 0x0d, 0xbe, 0xd3, 0x0f, 0x2e, 0x3e, 0xa7, 0x90, 0x3a, 0x3e,
  0x80, 0x77, 0x2c, 0xbd, 0x10, 0x6c, 0x0b, 0xbe, 0xe9, 0x12, 0x2a, 0x3e,
  0x0d, 0xdb, 0x02, 0x3e, 0x6a, 0xf9, 0x30, 0xbe, 0x00, 0xc3, 0x96, 0x3c,
  0x18, 0xce, 0x81, 0x3c, 0x3a, 0x3f, 0xc2, 0x3d, 0xcc, 0x51, 0x07, 0xbd,
  0x6e, 0x21, 0x80, 0x3d, 0x73, 0x1a, 0x47, 0x3e, 0xad, 0xe3, 0x34, 0xbe,
  0x80, 0x01, 0x03, 0xbd, 0x8c, 0x7b, 0x1e, 0xbd, 0xf4, 0x34, 0x70, 0xbd,
  0xad, 0x98, 0xd5, 0xbd, 0x00, 0xa8, 0x70, 0xbc, 0x70, 0x52, 0x36, 0xbe,
  0xd0, 0x30, 0xfb, 0x3c, 0xce, 0x82, 0xe3, 0x3d, 0xf0, 0x94, 0x2e, 0xbe,
  0xcd, 0xf3, 0x38, 0xbe, 0x57, 0xde, 0x40, 0xbe, 0x59, 0x0d, 0x21, 0x3e,
  0xd7, 0x5d, 0x44, 0x3e, 0x9c, 0x30, 0x7f, 0x3d, 0x8c, 0xc3, 0x33, 0x3d,
  0x36, 0xbf, 0x2c, 0xbe, 0x0c, 0xe7, 0x2e, 0x3d, 0xb4, 0xb0, 0x03, 0xbd,
  0x91, 0xd7, 0x0a, 0x3e, 0xd4, 0x31, 0x87, 0xbd, 0xad, 0x47, 0x45, 0x3e,
  0xca, 0xee, 0x0b, 0xbe, 0x7a, 0x6d, 0xba, 0x3d, 0x19, 0x8e, 0x15, 0x3e,
  0xc0, 0xa8, 0x85, 0x3b, 0xe9, 0xea, 0x1e, 0x3e, 0xf3, 0x72, 0xd1, 0xbd,
  0x63, 0x29, 0x39, 0x3e, 0x40, 0x72, 0x73, 0xbd, 0xe9, 0x37, 0x02, 0x3e,
  0x68, 0xea, 0x9a, 0x3c, 0xa0, 0x2d, 0x30, 0xbe, 0xd4, 0x00, 0x8a, 0xbd,
  0x19, 0xa5, 0x24, 0x3e, 0x46, 0x06, 0x1f, 0xbe, 0xb4, 0xd9, 0x2c, 0xbd,
  0xba, 0x9b, 0xe6, 0xbd, 0x7a, 0x6c, 0x21, 0xbe, 0x27, 0x6e, 0x2b, 0x3e,
  0x29, 0xc3, 0x28, 0x3e, 0xe2, 0x51, 0xbc, 0x3d, 0x71, 0xda, 0x05, 0x3e,
  0x40, 0xb5, 0x40, 0xbd, 0xe4, 0xfc, 0x60, 0x3d, 0xed, 0x0a, 0x3b, 0xbe,
  0xe6, 0x03, 0xaa, 0x3d, 0xa3, 0x51, 0x24, 0x3e, 0xd0, 0xf5, 0xa1, 0xbc,
  0xcc, 0x3f, 0x53, 0x3d, 0x60, 0x52, 0xf3, 0xbb, 0x83, 0x50, 0x3b, 0x3e,
  0x18, 0x22, 0xbf, 0xbc, 0xe8, 0x5b, 0x6b, 0xbd, 0x0c, 0xc8, 0x02, 0x3d,
  0x68, 0xdb, 0xa8, 0x3c, 0xe8, 0xc1, 0x9c, 0x3c, 0x7a, 0x0b, 0xcc, 0x3d,
  0x07, 0x9b, 0x00, 0x3e, 0x12, 0x73, 0xd0, 0x3d, 0x4a, 0x97, 0x06, 0xbe,
  0xf3, 0x62, 0xe0, 0xbd, 0x40, 0xc0, 0x1d, 0x3d, 0xe8, 0xb1, 0x9c, 0x3c,
  0x27, 0xc3, 0xb0, 0xbd, 0x68, 0x9f, 0x49, 0x3d, 0xe2, 0x40, 0xe4, 0x3d,
  0xc7, 0x19, 0xb6, 0xbd, 0x00, 0xf2, 0x89, 0x3b, 0xf0, 0xcb, 0x0e, 0xbe,
  0x50, 0x53, 0xe7, 0xbc, 0x8d, 0x92, 0xbb, 0xbd, 0x18, 0xa3, 0x65, 0xbd,
  0x82, 0xb0, 0x99, 0x3d, 0xd0, 0x9b, 0x0a, 0xbe, 0x8c, 0x2a, 0x4f, 0x3d,
  0xf6, 0x31, 0x04, 0xbe, 0x93, 0x89, 0x0d, 0xbe, 0xd8, 0xe7, 0x3a, 0x3d,
  0xc0, 0xbb, 0xfd, 0xbd, 0xfa, 0x77, 0x30, 0xbe, 0xda, 0x8f, 0x18, 0xbe,
  0xfa, 0x31, 0x48, 0xbe, 0x2d, 0x8b, 0x13, 0xbe, 0x40, 0xd9, 0x83, 0xbd,
  0x5d, 0x0b, 0x1c, 0xbe, 0xc3, 0x3b, 0x39, 0xbe, 0x80, 0x76, 0x55, 0x3b,
  0xa1, 0x9d, 0x1e, 0x3e, 0xe1, 0xce, 0x39, 0x3e, 0x1a, 0xf9, 0xaa, 0x3d,
  0x27, 0xce, 0x31, 0xbe, 0x6a, 0xc9, 0x1f, 0xbe, 0x18, 0x65, 0x7f, 0xbd,
  0x31, 0x20, 0x0b, 0x3e, 0xe0, 0x85, 0xd7, 0xbd, 0xa7, 0xac, 0x3e, 0xbe,
  0xda, 0xce, 0x17, 0xbe, 0x00, 0x28, 0x9c, 0x3a, 0x46, 0xa6, 0x8e, 0x3d,
  0xb0, 0x76, 0x82, 0x3c, 0x72, 0x02, 0xeb, 0x3d, 0x0c, 0x46, 0x59, 0x3d,
  0xc0, 0x39, 0x22, 0x3d, 0x0d, 0xa0, 0xec, 0xbd, 0xd8, 0xdb, 0x45, 0xbd,
  0x30, 0x8e, 0xf8, 0xbc, 0x34, 0xb4, 0x7a, 0x3d, 0xd2, 0xc6, 0xad, 0x3d,
  0x23, 0xf6, 0x49, 0xbe, 0x12, 0x29, 0xa0, 0x3d, 0x60, 0x88, 0x63, 0x3c,
  0x8d, 0xa4, 0x2d, 0xbe, 0x2d, 0x82, 0x02, 0xbe, 0x2a, 0xf3, 0x0a, 0xbe,
  0x5d, 0x1e, 0x43, 0xbe, 0xa6, 0x00, 0x1d, 0xbe, 0x00, 0x28, 0xd7, 0xbd,
  0x28, 0x49, 0x50, 0xbd, 0xa3, 0xdc, 0x47, 0xbe, 0x2d, 0xcf, 0xb6, 0xbd,
  0x68, 0x6e, 0x4c, 0xbd, 0xa0, 0xb5, 0x25, 0xbc, 0x34, 0xe9, 0x6a, 0x3d,
  0x9c, 0xa1, 0x54, 0x3d, 0x7a, 0xfd, 0xe4, 0xbd, 0xe3, 0xcc, 0x16, 0xbe,
  0x33, 0x9a, 0xb1, 0xbd, 0xf7, 0x33, 0x45, 0x3e, 0xc6, 0x8e, 0xf0, 0x3d,
  0x84, 0x1c, 0x05, 0xbe, 0x4a, 0x25, 0x21, 0xbe, 0xb9, 0xdd, 0x46, 0x3e,
  0xcc, 0xba, 0x12, 0xbd, 0x5a, 0xe6, 0x4a, 0xbe, 0xb7, 0xe0, 0x44, 0x3e,
  0xb0, 0x89, 0xda, 0x3c, 0x32, 0x61, 0xc8, 0x3d, 0xb0, 0x0f, 0xe0, 0x3c,
  0xad, 0x00, 0x45, 0xbe, 0x39, 0xe6, 0x4a, 0x3e, 0xc0, 0x88, 0xc3, 0xbb,
  0xa9, 0x4b, 0x45, 0x3e, 0xd9, 0x03, 0x25, 0x3e, 0x00, 0x05, 0x57, 0xbc,
  0xd9, 0x78, 0x3a, 0x3e, 0x67, 0x41, 0x4a, 0xbe, 0x32, 0xb2, 0xbe, 0x3d,
  0x1a, 0x5f, 0xef, 0xbd, 0x00, 0xdc, 0xda, 0xbc, 0x18, 0xf0, 0x23, 0x3d,
  0x1d, 0x0e, 0x38, 0xbe, 0x98, 0x45, 0x95, 0xbc, 0x70, 0xaa, 0x0c, 0xbe,
  0x9d, 0x23, 0x36, 0x3e, 0x17, 0x3f, 0x06, 0x3e, 0x40, 0x43, 0x68, 0xbb,
  0x4a, 0x89, 0x35, 0xbe, 0xfa, 0xd0, 0x20, 0xbe, 0x40, 0xb7, 0x4a, 0xbe,
  0x6d, 0xbc, 0xbb, 0xbd, 0x5a, 0x60, 0xc1, 0x3d, 0xf2, 0xbe, 0xf5, 0x3d,
  0xdd, 0xf3, 0x00, 0xbe, 0x86, 0x72, 0xe4, 0x3d, 0x8c, 0x1d, 0x7f, 0x3d,
  0x18, 0x8e, 0x31, 0x3d, 0x6d, 0x7c, 0x29, 0x3e, 0x16, 0x5e, 0x25, 0xbe,
  0x4c, 0xf2, 0x20, 0x3d, 0xd3, 0x58, 0x4a, 0x3e, 0x00, 0x28, 0x2a, 0x3c,
  0x0a, 0x9f, 0x03, 0xbe, 0xd3, 0xd9, 0xda, 0xbd, 0xf2, 0x5f, 0xfb, 0x3d,
  0xc9, 0x15, 0x22, 0x3e, 0x18, 0xad, 0xc1, 0x3c, 0x18, 0x65, 0x9a, 0x3c,
  0x58, 0x33, 0x1a, 0xbd, 0x70, 0x91, 0x20, 0xbe, 0xb0, 0xd2, 0x42, 0xbe,
  0x68, 0xe5, 0x85, 0x3c, 0x6a, 0xaa, 0x16, 0xbe, 0x27, 0x48, 0xc9, 0xbd,
  0x1d, 0xc6, 0x01, 0xbe, 0x7d, 0xf1, 0x2a, 0x3e, 0x4d, 0x9d, 0x17, 0x3e,
  0x18, 0x69, 0x3c, 0x3d, 0xb4, 0xd7, 0x46, 0xbd, 0x80, 0xd2, 0xc8, 0x3c,
  0x26, 0xf7, 0x18, 0xbe, 0xa7, 0x9f, 0x14, 0x3e, 0x2d, 0x45, 0xd4, 0xbd,
  0x80, 0xbe, 0x8e, 0xbc, 0x67, 0xba, 0x46, 0xbe, 0xf9, 0xdd, 0x37, 0x3e,
  0x42, 0x64, 0xc9, 0x3d, 0xc7, 0x64, 0x16, 0x3e, 0x6e, 0x6a, 0xb5, 0x3d,
  0xb0, 0xa1, 0xe9, 0xbc, 0x80, 0x5b, 0xf9, 0xbd, 0x02, 0xf1, 0xbe, 0x3d,
  0xa3, 0x86, 0x29, 0xbe, 0xc6, 0xc6, 0xfd, 0x3d, 0x47, 0x4d, 0x06, 0x3e,
  0x8e, 0x24, 0x8f, 0x3d, 0xf4, 0xbe, 0x07, 0x3d, 0x13, 0xde, 0x21, 0xbe,
  0x18, 0x04, 0xb9, 0x3c, 0xb2, 0x3b, 0x8b, 0x3d, 0x00, 0xc3, 0x59, 0x3a,
  0x1a, 0x0e, 0xd5, 0xbd, 0x0c, 0xba, 0x0b, 0xbd, 0xa3, 0x88, 0x0f, 0xbe,
  0x80, 0xcd, 0xd1, 0xbc, 0x2e, 0x1b, 0xf3, 0x3d, 0x43, 0x33, 0x3d, 0x3e,
  0x17, 0xa2, 0x41, 0xbe, 0xe0, 0x58, 0x94, 0xbd, 0x8d, 0x8b, 0x0a, 0x3e,
  0x50, 0x4b, 0x9c, 0x3c, 0xda, 0xaa, 0xc0, 0xbd, 0x3d, 0xff, 0x15, 0xbe,
  0xed, 0x61, 0xcc, 0xbd, 0x96, 0x8e, 0x0a, 0xbe, 0x07, 0x35, 0x9c, 0xbd,
  0x28, 0x9a, 0x57, 0xbd, 0x40, 0x4f, 0x17, 0x3d, 0xc9, 0x78, 0x0c, 0x3e,
  0x80, 0xf0, 0xf0, 0x3c, 0x0d, 0x7a, 0x19, 0xbe, 0x4e, 0x66, 0xc7, 0x3d,
  0xc0, 0x1f, 0x94, 0xbd, 0x99, 0xeb, 0x39, 0x3e, 0x18, 0xdd, 0xbb, 0x3c,
  0x07, 0x34, 0x3e, 0xbe, 0x68, 0x80, 0xa4, 0xbc, 0xd0, 0x85, 0x80, 0x3c,
  0xf4, 0x7d, 0x14, 0x3d, 0x91, 0x67, 0x49, 0x3e, 0x0d, 0x71, 0x49, 0x3e,
  0x77, 0x54, 0x47, 0xbe, 0xe8, 0x8b, 0x3c, 0x3d, 0x01, 0x60, 0x20, 0x3e,
  0x68, 0x22, 0x00, 0xbd, 0x97, 0xbf, 0x44, 0xbe, 0x3a, 0xba, 0x2b, 0xbe,
  0xc7, 0x36, 0xfc, 0xbd, 0xb4, 0x1a, 0x14, 0x3d, 0xf1, 0x2c, 0x2b, 0x3e,
  0x7d, 0xef, 0x3f, 0x3e, 0x2a, 0x1b, 0x34, 0xbe, 0x1a, 0x35, 0xd9, 0xbd,
  0x23, 0x17, 0x2e, 0x3e, 0x4b, 0x64, 0x92, 0xbd, 0x6f, 0x21, 0xa3, 0xbe,
  0xa9, 0x37, 0x8d, 0x3e, 0x20, 0x10, 0x70, 0xbe, 0x07, 0xec, 0x4c, 0x3a,
  0xc9, 0x87, 0x6c, 0x3e, 0x6d, 0xb3, 0x0d, 0xbe, 0xeb, 0xbb, 0x89, 0xbe,
  0x18, 0xbd, 0x7c, 0xbd, 0x0c, 0x31, 0x87, 0xbe, 0x55, 0x92, 0x9d, 0xbe,
  0xa0, 0x3d, 0x1d, 0x3e, 0xcb, 0x6f, 0xda, 0xbe, 0x68, 0x73, 0x0e, 0xbe,
  0x17, 0x63, 0xb1, 0xbc, 0xdf, 0x5f, 0x92, 0xbe, 0x20, 0xc9, 0x8a, 0xbe,
  0x4d, 0x3a, 0x7b, 0xbd, 0xa9, 0x09, 0xc3, 0xbe, 0x49, 0xe7, 0x86, 0xbe,
  0xae, 0x6a, 0x26, 0x3e, 0x5a, 0x4a, 0x04, 0xbf, 0x53, 0xc8, 0xf2, 0xbe,
  0x59, 0x8e, 0x0a, 0xbe, 0x2f, 0xf3, 0x29, 0xbe, 0x9b, 0x8e, 0xca, 0xbe,
  0xa0, 0x6e, 0x60, 0xbe, 0x96, 0x16, 0x2b, 0x3e, 0x23, 0xb8, 0x02, 0x3e,
  0x12, 0x14, 0x2e, 0xbd, 0x6b, 0x9a, 0xe3, 0x3d, 0x96, 0x16, 0x8e, 0x3e,
  0xa3, 0x2c, 0x35, 0xbe, 0xce, 0x3c, 0x21, 0xbe, 0x72, 0x78, 0x4d, 0x3e,
  0xf7, 0xac, 0x8b, 0x3d, 0xb4, 0xb9, 0x50, 0xb9, 0x3a, 0xf8, 0x3e, 0x3e,
  0xd1, 0x2a, 0x10, 0xbe, 0xc0, 0x54, 0x8a, 0xbd, 0xa1, 0x6d, 0x70, 0x3e,
  0xa5, 0xc0, 0x75, 0xbb, 0xe9, 0x4f, 0x62, 0x3d, 0x8d, 0xed, 0x6a, 0x3d,
  0xee, 0x10, 0x9c, 0xbd, 0x2b, 0xe7, 0xf5, 0x3c, 0x50, 0x9d, 0x2c, 0xbd,
  0x65, 0x6d, 0x87, 0xbe, 0xdd, 0xe4, 0xd1, 0xbd, 0x3a, 0x7c, 0x9c, 0x3e,
  0x81, 0xfa, 0x4b, 0xbd, 0x5d, 0x30, 0x0d, 0x3e, 0x4e, 0xb1, 0x14, 0x3e,
  0x82, 0x0b, 0x4d, 0xbe, 0xee, 0x11, 0x6f, 0xbc, 0x96, 0xb7, 0xb1, 0xbd,
  0xcc, 0xa2, 0x7a, 0xbe, 0x14, 0x30, 0xfc, 0xbd, 0x93, 0x10, 0x82, 0x3e,
  0x9a, 0x8f, 0xef, 0xbb, 0x63, 0x35, 0x04, 0xbe, 0x6c, 0xfa, 0x96, 0xbd,
  0xf7, 0xc6, 0x1e, 0xbe, 0x04, 0x36, 0x9f, 0x3c, 0x55, 0x6b, 0x8a, 0xbd,
  0x4d, 0x4f, 0x89, 0x3d, 0xa6, 0x04, 0x44, 0xbc, 0x2c, 0x64, 0x9b, 0xbd,
  0x6f, 0x50, 0xf7, 0x3c, 0x3e, 0xae, 0x14, 0x3d, 0xdf, 0xfa, 0x40, 0xbd,
  0xaf, 0xa8, 0x80, 0xbe, 0x87, 0xba, 0x23, 0xbd, 0x60, 0xd6, 0x0d, 0xbd,
  0x3c, 0xd4, 0xd0, 0xbd, 0x8d, 0x15, 0x88, 0xbe, 0x9b, 0x80, 0x1c, 0x3e,
  0x7b, 0x65, 0x48, 0xbe, 0xeb, 0xcf, 0x89, 0xbe, 0xe0, 0x48, 0x11, 0x3e,
  0x52, 0x02, 0x40, 0xbc, 0x3c, 0xef, 0x43, 0xbd, 0xbb, 0xca, 0x03, 0x3d,
  0xf0, 0xac, 0x69, 0xbe, 0x2c, 0x11, 0x91, 0xbd, 0x52, 0x97, 0x2b, 0x3e,
  0xd0, 0x27, 0x39, 0xbe, 0x05, 0xe7, 0xa0, 0xbe, 0x22, 0xac, 0x96, 0xbd,
  0xa3, 0xdb, 0x8b, 0xbe, 0x09, 0x5d, 0x8a, 0xbe, 0x10, 0x8c, 0xaf, 0xbe,
  0x4b, 0xd2, 0x02, 0xbe, 0xae, 0x1b, 0xa5, 0xbe, 0xdd, 0x2d, 0x68, 0xbe,
  0xe2, 0x17, 0xa8, 0xbd, 0x86, 0x29, 0x58, 0x3d, 0xeb, 0xf1, 0x89, 0xbe,
  0x76, 0x9d, 0x04, 0xbe, 0x51, 0xc3, 0x2f, 0xbe, 0xc1, 0x91, 0x44, 0xbc,
  0x89, 0x4c, 0x94, 0x3d, 0xd8, 0x50, 0x21, 0xbe, 0xd8, 0xea, 0xf4, 0xbe,
  0xb8, 0xfc, 0xce, 0x3d, 0x5e, 0xb8, 0x24, 0xbe, 0x28, 0x5c, 0xc0, 0xbe,
  0x35, 0xb0, 0x22, 0x3e, 0xee, 0xb8, 0xb5, 0xbd, 0xea, 0xcd, 0x04, 0xbe,
  0xd6, 0xbd, 0xa3, 0x3e, 0xda, 0x93, 0x22, 0xbe, 0x33, 0x45, 0xa7, 0xbe,
  0x03, 0x46, 0x92, 0x3e, 0x06, 0x63, 0x27, 0x3d, 0x9b, 0x63, 0x91, 0xbe,
  0x6f, 0xa5, 0x65, 0x3e, 0x3b, 0x64, 0x03, 0x3d, 0xfd, 0x6f, 0x6b, 0xbe,
  0xea, 0x7b, 0x1f, 0x3e, 0xbc, 0x06, 0x87, 0x3d, 0x81, 0x83, 0x90, 0xbe,
  0xed, 0xf7, 0x7c, 0xbd, 0x49, 0x7a, 0x47, 0x3b, 0xf0, 0x35, 0x01, 0xbe,
  0x8a, 0x9d, 0x1c, 0x3e, 0xce, 0x72, 0x08, 0xbd, 0x14, 0xf2, 0xba, 0xbd,
  0x37, 0x77, 0xdd, 0x3d, 0x95, 0xb0, 0x52, 0xbe, 0x4c, 0x53, 0x81, 0xbe,
  0x8d, 0x1d, 0x35, 0x3e, 0x65, 0x1f, 0xab, 0x3d, 0x5a, 0x35, 0xb0, 0xbd,
  0xc9, 0xd4, 0x81, 0x3d, 0xc4, 0x63, 0xa1, 0xbe, 0x35, 0x05, 0x86, 0xbe,
  0xcb, 0x31, 0x08, 0x3e, 0x41, 0x48, 0x9b, 0xbe, 0x67, 0x23, 0x27, 0xbd,
  0x68, 0x3d, 0x32, 0xbd, 0xa5, 0xd8, 0x7c, 0xbe, 0x11, 0xe8, 0x77, 0xbd,
  0x6c, 0xa3, 0x55, 0x3e, 0x18, 0xf2, 0xaa, 0x3d, 0x6a, 0xa2, 0x07, 0xbd,
  0x7a, 0xf4, 0x00, 0x3e, 0xf5, 0xe9, 0xea, 0xbc, 0xef, 0x11, 0x66, 0xbe,
  0xa9, 0x15, 0xaa, 0x3d, 0x2f, 0x14, 0xfb, 0x3d, 0xf5, 0xc1, 0xe6, 0xbc,
  0x61, 0x65, 0x2b, 0x3e, 0x49, 0x09, 0x3e, 0x3d, 0x3e, 0x0a, 0x44, 0xbe,
  0x2c, 0x9c, 0x5e, 0xbd, 0xbc, 0x15, 0x55, 0x3e, 0x25, 0xf6, 0x95, 0xbe,
  0x95, 0x31, 0x93, 0xbc, 0x25, 0xf1, 0x1e, 0x3e, 0xb1, 0x4e, 0x36, 0x3c,
  0x05, 0xb7, 0x9c, 0x3d, 0x19, 0x80, 0x33, 0xbe, 0x87, 0x67, 0xaf, 0xbe,
  0xa5, 0xf0, 0x32, 0xbe, 0xfa, 0x0a, 0xcf, 0xbe, 0x62, 0x35, 0xe8, 0xbe,
  0x8e, 0x8d, 0xf7, 0x3c, 0xdd, 0xff, 0x19, 0xbf, 0xf2, 0xaf, 0x39, 0xbf,
  0xc8, 0xe8, 0x9f, 0x3d, 0x44, 0x22, 0x66, 0xbf, 0x6d, 0xf2, 0x69, 0xbf,
  0x07, 0x7d, 0x7d, 0x3e, 0x5c, 0x40, 0x6a, 0xbf, 0x2e, 0x28, 0x30, 0xbf,
  0x4a, 0xaf, 0xd6, 0xbd, 0x51, 0xd3, 0x30, 0xbf, 0x2f, 0x97, 0x0b, 0xbf,
  0xfe, 0x91, 0x37, 0x3d, 0xf8, 0xb1, 0x4b, 0xbf, 0x1c, 0xc7, 0xb8, 0xbe,
  0x5e, 0x6b, 0x85, 0xbd, 0x0c, 0xb4, 0x0f, 0xbf, 0x46, 0xe5, 0x1b, 0xbf,
  0x41, 0xd9, 0x65, 0xbd, 0x03, 0x18, 0x07, 0xbf, 0x00, 0x98, 0x9c, 0xbe,
  0x7d, 0x3c, 0xaf, 0xbd, 0xde, 0xc8, 0xe2, 0xbe, 0xfb, 0xf0, 0x89, 0xbe,
  0x42, 0x23, 0xa0, 0x3d, 0xc5, 0x42, 0x0a, 0xbf, 0xb3, 0xe3, 0x89, 0xbe,
  0x10, 0x4a, 0x3a, 0xbe, 0x3a, 0x9c, 0x33, 0xbf, 0xa2, 0x08, 0xfd, 0xbe,
  0x9c, 0x0f, 0xc7, 0xbd, 0x33, 0x91, 0xe2, 0xbe, 0x89, 0xbf, 0x8c, 0xbe,
  0x7c, 0x8c, 0x9c, 0x3c, 0xbf, 0x9a, 0x46, 0xbf, 0xc1, 0x27, 0xc5, 0xbe,
  0x2e, 0x04, 0x59, 0xbd, 0x61, 0x46, 0x22, 0xbf, 0x25, 0x60, 0x05, 0xbf,
  0x4c, 0x88, 0x25, 0xbe, 0xdf, 0x73, 0x11, 0xbf, 0xb8, 0xef, 0x0a, 0xbf,
  0xba, 0xed, 0x6a, 0x3c, 0x2e, 0x28, 0x3f, 0xbf, 0x33, 0xd6, 0x0b, 0xbf,
  0xa8, 0x36, 0xfe, 0x3d, 0x93, 0xde, 0x45, 0xbf, 0xcc, 0xdf, 0x0e, 0xbf,
  0x5d, 0x85, 0xa6, 0x3d, 0x10, 0xab, 0x5a, 0xbf, 0x58, 0xf6, 0x22, 0xbf,
  0xc8, 0x22, 0x09, 0x3e, 0x77, 0x3a, 0x46, 0xbf, 0xf8, 0xbb, 0x30, 0xbf,
  0x9f, 0x92, 0x29, 0x3e, 0xdc, 0xa0, 0x3e, 0xbf, 0x16, 0xf9, 0x37, 0xbf,
  0x18, 0xd0, 0xa8, 0xbd, 0x20, 0xca, 0x6b, 0xbf, 0x28, 0x26, 0x25, 0xbf,
  0x2e, 0x5e, 0x3f, 0x3e, 0x02, 0x2e, 0x40, 0xbf, 0x92, 0x2d, 0xd3, 0xbe,
  0xae, 0x59, 0xf5, 0xbd, 0x40, 0x30, 0xea, 0xbe, 0xf6, 0x46, 0x05, 0xbf,
  0x11, 0x00, 0xc2, 0x3d, 0x3a, 0x25, 0x2c, 0xbf, 0x0a, 0x64, 0xec, 0xbe,
  0xc4, 0x3d, 0xb5, 0x3b, 0x5f, 0x86, 0xc4, 0xbb, 0x49, 0xaf, 0x10, 0x3e,
  0xd0, 0x12, 0x2d, 0x39, 0x62, 0x8f, 0xa5, 0xbe, 0x56, 0xc5, 0x4c, 0xbe,
  0xd9, 0x46, 0x61, 0xbe, 0xf0, 0xfc, 0xf2, 0x3b, 0xa4, 0xb0, 0xcc, 0xbd,
  0xb9, 0x57, 0x00, 0xbe, 0xda, 0xd0, 0x4f, 0x3e, 0x4d, 0x07, 0xd4, 0x3d,
  0xc5, 0x92, 0x39, 0xbe, 0x6d, 0x84, 0x96, 0x3e, 0x96, 0x27, 0x84, 0x3d,
  0xa5, 0x05, 0x00, 0x3d, 0x6a, 0xbb, 0x67, 0x3d, 0x99, 0x94, 0x4a, 0x3d,
  0x9e, 0x3a, 0x7f, 0xbd, 0x25, 0xb7, 0x86, 0x3e, 0x73, 0xf6, 0xb4, 0x3c,
  0xf8, 0x69, 0x22, 0x3d, 0xe8, 0x85, 0xa5, 0x3d, 0xa1, 0xb2, 0x68, 0x3e,
  0x0b, 0xe8, 0xea, 0x39, 0x22, 0x15, 0x4e, 0x3d, 0xd3, 0xc5, 0x92, 0x3e,
  0xd4, 0xc2, 0xbc, 0xbd, 0x7a, 0xa3, 0xb6, 0x3e, 0xef, 0x3d, 0x8c, 0x3e,
  0xb5, 0x3c, 0x23, 0x3e, 0xcd, 0x7d, 0x4e, 0xbd, 0x65, 0xe4, 0x31, 0xbe,
  0x9d, 0xe2, 0x4e, 0x3e, 0xa8, 0x87, 0x47, 0xbe, 0x39, 0x36, 0x3b, 0xbe,
  0xf3, 0x60, 0x15, 0xbd, 0x1f, 0x5e, 0x3d, 0x3d, 0x06, 0x7f, 0x14, 0x3d,
  0x3c, 0xbd, 0xab, 0xbc, 0x24, 0xbc, 0xb0, 0xbd, 0xd2, 0x4e, 0x80, 0xbe,
  0xa3, 0xab, 0x43, 0x3e, 0xa7, 0x32, 0xa1, 0x3d, 0x4a, 0xe8, 0x36, 0xbe,
  0xd8, 0x2c, 0xed, 0xbd, 0x60, 0xd1, 0xbf, 0x3d, 0xea, 0xd1, 0xf1, 0x3b,
  0xbe, 0x59, 0x0f, 0x3e, 0x60, 0x08, 0xb5, 0x3e, 0x06, 0xfb, 0x30, 0xbc,
  0x4f, 0xee, 0x28, 0x3e, 0xad, 0x93, 0xdd, 0x3d, 0x40, 0xb0, 0x16, 0x3e,
  0x33, 0xaa, 0x3a, 0xbe, 0x2d, 0x3b, 0xb9, 0x3e, 0xff, 0x8f, 0x5e, 0xbc,
  0x37, 0x9c, 0x22, 0x3e, 0x81, 0xb8, 0x78, 0x3e, 0x39, 0x17, 0xbe, 0x3d,
  0x6f, 0xc0, 0xa7, 0x3d, 0xfe, 0xdf, 0xa4, 0x3e, 0x1a, 0xa2, 0x0c, 0x3c,
  0xb2, 0x0b, 0xd1, 0xbd, 0xae, 0x80, 0xbd, 0x3e, 0xd4, 0xdc, 0x94, 0x3e,
  0xba, 0xfa, 0x8c, 0xbd, 0x15, 0x54, 0x9d, 0x3e, 0x71, 0xc2, 0xdb, 0x3b,
  0x04, 0x70, 0x40, 0x3e, 0x10, 0x11, 0x0e, 0x3e, 0xd9, 0x85, 0x95, 0x3e,
  0x1d, 0xf3, 0x22, 0xbe, 0x2d, 0xa0, 0x1d, 0x3f, 0xfa, 0x34, 0x03, 0x3f,
  0xfe, 0x04, 0x67, 0xbe, 0x3d, 0xf5, 0x81, 0x3d, 0x9a, 0x55, 0x24, 0x3d,
  0x50, 0xb7, 0x13, 0x3e, 0x38, 0x4d, 0xab, 0x3d, 0x1f, 0x65, 0x00, 0xbd,
  0x40, 0xaa, 0x56, 0x3e, 0x65, 0xc7, 0xdd, 0xbd, 0x37, 0x5a, 0x62, 0xbc,
  0x56, 0xbe, 0x47, 0x3d, 0x50, 0x2b, 0xa0, 0xbe, 0x00, 0xc1, 0x4d, 0xbe,
  0x83, 0xc5, 0x15, 0x3e, 0xfa, 0x61, 0xf8, 0xbd, 0x03, 0xa1, 0xdb, 0xba,
  0x99, 0x55, 0x96, 0xbc, 0xe3, 0xc5, 0x9a, 0xbe, 0x70, 0xf7, 0x61, 0xbe,
  0xb2, 0x30, 0x90, 0xbd, 0x5c, 0xef, 0xb9, 0xbe, 0xd8, 0xe6, 0x1b, 0xbe,
  0x34, 0x3d, 0x1e, 0x3e, 0x73, 0x82, 0xe8, 0xbd, 0x1d, 0x91, 0xff, 0x3b,
  0x15, 0x50, 0x26, 0xbe, 0x7e, 0x07, 0x41, 0x3d, 0x91, 0xb1, 0xed, 0xbd,
  0x0d, 0x93, 0x6b, 0xbe, 0x7f, 0x26, 0xaf, 0xbd, 0x12, 0x22, 0x8a, 0xbe,
  0x98, 0x79, 0xd9, 0xbd, 0x40, 0xbf, 0xed, 0xbd, 0xd7, 0x62, 0x75, 0x3c,
  0x0b, 0xdd, 0x6d, 0xbb, 0x9b, 0x84, 0x45, 0xbe, 0x1a, 0xe5, 0x32, 0xbe,
  0xff, 0x35, 0xf9, 0x3d, 0x3f, 0xc3, 0x72, 0x3d, 0xb3, 0x28, 0xb9, 0x3d,
  0xac, 0xe7, 0x9b, 0xbd, 0x08, 0x8f, 0xc7, 0xbd, 0x7b, 0x7e, 0x31, 0xbe,
  0x6c, 0x37, 0xdf, 0x3c, 0x6c, 0x1e, 0x72, 0xbd, 0x57, 0xdf, 0x5e, 0xbe,
  0x67, 0x5b, 0x08, 0x3e, 0xf7, 0x48, 0xd1, 0xbd, 0x2b, 0x4d, 0x91, 0xbe,
  0x3f, 0xfa, 0xcc, 0x3d, 0x35, 0x5d, 0x8b, 0x3d, 0xf2, 0x73, 0x85, 0xbe,
  0x8a, 0x72, 0xfc, 0x3d, 0xe2, 0x44, 0x8d, 0xbe, 0xf7, 0x93, 0x13, 0xbe,
  0x69, 0x7d, 0x14, 0x3e, 0x8f, 0x9c, 0x9d, 0x3c, 0x3d, 0x81, 0x92, 0xbe,
  0x4f, 0x8d, 0xb4, 0xbd, 0xf9, 0xa5, 0xa7, 0x3d, 0xb1, 0xe7, 0x43, 0x3d,
  0x0b, 0xa9, 0x8d, 0x3d, 0xfb, 0xd3, 0x84, 0x3d, 0x8b, 0x8a, 0x25, 0x3d,
  0x7a, 0xb1, 0x1f, 0xbd, 0x04, 0x3d, 0xf6, 0xbd, 0xe0, 0x30, 0x95, 0xbe,
  0xa8, 0x7a, 0x3f, 0x3e, 0xd5, 0x0f, 0x17, 0xbe, 0xca, 0x76, 0xf4, 0xbc,
  0x4d, 0x00, 0xfc, 0xba, 0x2a, 0x13, 0xc7, 0xbc, 0xc9, 0x29, 0x87, 0x3d,
  0x09, 0xa6, 0x39, 0xbe, 0x94, 0x72, 0x90, 0x3e, 0x87, 0x19, 0x5c, 0xbd,
  0xfd, 0x69, 0x4a, 0x3e, 0x3d, 0xe3, 0x10, 0x3f, 0x31, 0xda, 0xcd, 0x3e,
  0x11, 0x80, 0xa2, 0xbd, 0x19, 0x87, 0x0a, 0x3f, 0xad, 0x5b, 0xad, 0x3e,
  0xf1, 0x3a, 0xe6, 0x3c, 0x9a, 0x00, 0x27, 0x3f, 0x9e, 0x5f, 0x06, 0x3f,
  0xf6, 0x12, 0xb1, 0x3d, 0x3f, 0x9e, 0xd1, 0x3e, 0x3c, 0x8e, 0xd9, 0x3e,
  0x4e, 0xc1, 0x61, 0xbe, 0x50, 0xb7, 0x1e, 0x3f, 0x88, 0x45, 0x98, 0x3e,
  0xf5, 0x37, 0xa7, 0xbd, 0xdc, 0xb6, 0x9d, 0x3e, 0xd7, 0x5a, 0x3d, 0x3e,
  0x6a, 0x99, 0xdf, 0xbd, 0xe8, 0xd4, 0x23, 0x3f, 0x73, 0x5d, 0x07, 0x3f,
  0xf6, 0x5d, 0x5e, 0xbe, 0x77, 0x26, 0x2a, 0x3f, 0xee, 0x29, 0xa8, 0x3e,
  0x1b, 0xd6, 0x11, 0x3e, 0xd7, 0x4d, 0xd0, 0x3e, 0xf9, 0xc4, 0x90, 0x3e,
  0xfe, 0x59, 0x36, 0x3e, 0x7b, 0xd4, 0xaa, 0x3e, 0x64, 0x01, 0xc0, 0x3e,
  0xf2, 0x66, 0x2d, 0x3e, 0x8a, 0xdf, 0xed, 0x3e, 0x86, 0x44, 0xfb, 0x3e,
  0xe1, 0x08, 0x42, 0x3d, 0xd7, 0xbd, 0x29, 0x3f, 0x74, 0x0c, 0x1d, 0x3f,
  0x88, 0xd9, 0x37, 0xbe, 0x69, 0x03, 0x03, 0x3f, 0xb0, 0xe8, 0x15, 0x3f,
  0x48, 0x4d, 0x32, 0x3e, 0xb3, 0x4f, 0x26, 0x3f, 0xff, 0xed, 0xf5, 0x3e,
  0x31, 0x67, 0x41, 0xbe, 0xc7, 0x1c, 0x0f, 0x3f, 0x88, 0xfc, 0x84, 0x3e,
  0x09, 0x6a, 0xab, 0xbd, 0x7e, 0x9b, 0x17, 0x3f, 0xb5, 0xa2, 0xad, 0x3e,
  0x3f, 0xc9, 0x2c, 0x3e, 0xda, 0xd6, 0xc0, 0x3e, 0xc3, 0x93, 0xa7, 0x3e,
  0x33, 0x00, 0x32, 0x3d, 0xd3, 0x4b, 0xd7, 0x3e, 0x52, 0xab, 0xbf, 0x3e,
  0xc4, 0xbf, 0x0a, 0xbd, 0x6e, 0x71, 0x31, 0x3f, 0xaa, 0x23, 0xc4, 0x3e,
  0xd5, 0x9e, 0xe6, 0x3c, 0xfd, 0x38, 0xc3, 0x3e, 0x23, 0xb8, 0x00, 0x3f,
  0x34, 0x52, 0x2d, 0x3e, 0x93, 0x7d, 0xea, 0x3e, 0x0c, 0x42, 0xb1, 0x3e,
  0xb0, 0xe3, 0xd9, 0xbc, 0xba, 0x3d, 0x32, 0xbe, 0xc7, 0x43, 0xa7, 0xbd,
  0x30, 0x34, 0x46, 0xbe, 0x21, 0xa0, 0x28, 0x3e, 0x28, 0xe7, 0x29, 0xbd,
  0xe8, 0xf8, 0x9e, 0x3c, 0x40, 0x55, 0x1b, 0xbd, 0xa0, 0x3d, 0xb5, 0xbb,
  0xac, 0xbb, 0x8a, 0xbd, 0x63, 0xb1, 0x32, 0x3e, 0xe2, 0x3b, 0xaa, 0x3d,
  0x5a, 0x3a, 0xc5, 0x3d, 0x69, 0xea, 0x35, 0x3e, 0xcc, 0xee, 0x52, 0xbd,
  0x30, 0x2a, 0xde, 0xbc, 0x17, 0xf2, 0x49, 0x3e, 0x77, 0x44, 0x38, 0x3e,
  0x97, 0x05, 0x16, 0x3e, 0x12, 0x66, 0x93, 0x3d, 0x70, 0x88, 0x33, 0xbe,
  0x00, 0xc2, 0xd8, 0x3c, 0xba, 0x73, 0x8c, 0x3d, 0xc7, 0x08, 0xa5, 0xbd,
  0xc6, 0x16, 0x2b, 0xbe, 0xe0, 0x8e, 0x2c, 0xbe, 0x60, 0x76, 0xea, 0xbd,
  0x5d, 0x6c, 0x39, 0x3e, 0x30, 0xf2, 0x4e, 0xbc, 0xc7, 0x01, 0xba, 0xbd,
  0x66, 0x4f, 0xc5, 0x3d, 0x58, 0xc7, 0x33, 0x3d, 0xe3, 0x6b, 0x15, 0x3e,
  0x3d, 0xaf, 0x27, 0x3e, 0x13, 0xbc, 0xbf, 0xbd, 0x00, 0xd0, 0x61, 0xbd,
  0x6d, 0xb9, 0xc9, 0xbd, 0x20, 0xdb, 0x35, 0xbe, 0x80, 0x11, 0x38, 0xbd,
  0x60, 0x22, 0x02, 0xbe, 0xb7, 0xb2, 0x3e, 0x3e, 0xf2, 0xf7, 0xc0, 0x3d,
  0x6e, 0x7e, 0xfe, 0x3d, 0xce, 0x99, 0x91, 0x3d, 0x52, 0x04, 0xb6, 0x3d,
  0x21, 0x33, 0x41, 0x3e, 0x30, 0x26, 0xd1, 0xbc, 0x4e, 0x15, 0xa5, 0x3d,
  0x00, 0xbc, 0xdd, 0xbc, 0xc6, 0xf9, 0xf2, 0x3d, 0x00, 0xe0, 0x43, 0xbc,
  0xd8, 0x39, 0x47, 0x3d, 0x7d, 0x4f, 0x36, 0xbe, 0xd0, 0xc0, 0xfc, 0x3c,
  0x1a, 0x64, 0xe8, 0x3d, 0xd0, 0xc8, 0x32, 0x3c, 0x62, 0xc3, 0xee, 0x3d,
  0x58, 0x70, 0x41, 0xbd, 0x0d, 0xdb, 0x2b, 0xbe, 0x8a, 0x71, 0x09, 0xbe,
  0xe1, 0x61, 0x1c, 0x3e, 0x96, 0x6e, 0x2b, 0xbe, 0x6d, 0xb7, 0x30, 0xbe,
  0x20, 0x30, 0x1e, 0xbe, 0xdd, 0xd2, 0x3e, 0x3e, 0x93, 0xb8, 0x42, 0x3e,
  0xc0, 0x38, 0x05, 0x3b, 0x5c, 0xa0, 0x79, 0x3d, 0xa8, 0xf4, 0x70, 0xbd,
  0xed, 0x9f, 0xe2, 0xbd, 0x46, 0x77, 0x9f, 0x3d, 0x51, 0x85, 0x30, 0x3e,
  0x58, 0xaa, 0x32, 0xbd, 0x30, 0x8e, 0x4b, 0xbc, 0x80, 0x7e, 0xb2, 0xba,
  0x57, 0x1e, 0x3b, 0xbe, 0x57, 0x1c, 0x49, 0x3e, 0xe8, 0x2d, 0x02, 0x3d,
  0xad, 0x90, 0xbe, 0xbd, 0x02, 0x31, 0xde, 0x3d, 0xa2, 0xbf, 0xf1, 0x3d,
  0x60, 0x0e, 0x82, 0xbb, 0xd0, 0x77, 0x2b, 0xbe, 0x2e, 0x12, 0xf6, 0x3d,
  0x80, 0xd2, 0x67, 0xbd, 0x80, 0x85, 0x8e, 0x3c, 0xa8, 0xc4, 0x6e, 0xbd,
  0xa6, 0x7a, 0x90, 0xbd, 0xa8, 0x64, 0x2d, 0x3d, 0x00, 0x51, 0xcd, 0xbc,
  0x00, 0x68, 0x33, 0x3b, 0xba, 0x99, 0xf5, 0x3d, 0x3d, 0x2a, 0x0d, 0x3e,
  0xf4, 0x68, 0x76, 0xbd, 0x34, 0x41, 0x58, 0x3d, 0x94, 0x59, 0x03, 0xbe,
  0xc0, 0x9c, 0x32, 0xbb, 0xd8, 0x19, 0x45, 0x3d, 0x33, 0xfd, 0x1e, 0x3e,
  0x0a, 0xc6, 0x32, 0xbe, 0x68, 0xb6, 0x66, 0xbd, 0xb1, 0x85, 0x11, 0x3e,
  0xea, 0xd3, 0x41, 0xbe, 0x1d, 0xbb, 0x00, 0x3e, 0x40, 0xc8, 0x55, 0xbd,
  0x20, 0x92, 0x34, 0xbe, 0xb1, 0xa2, 0x03, 0x3e, 0xd2, 0x5b, 0xd5, 0x3d,
  0x93, 0xce, 0xab, 0xbd, 0xf0, 0x03, 0x48, 0xbe, 0x74, 0xb8, 0x2b, 0x3d,
  0x57, 0x5d, 0x35, 0xbe, 0xd2, 0x87, 0xd9, 0x3d, 0xd0, 0xbe, 0x3b, 0x3c,
  0x7d, 0xe9, 0x46, 0xbe, 0x33, 0x14, 0x2e, 0x3e, 0xa7, 0x67, 0x02, 0x3e,
  0x50, 0xd7, 0x84, 0x3c, 0x82, 0x58, 0xe8, 0x3d, 0x27, 0x88, 0x46, 0x3e,
  0x27, 0x6e, 0xf8, 0xbd, 0xe7, 0x9c, 0x44, 0xbe, 0x26, 0xe1, 0x94, 0xbd,
  0xa0, 0x08, 0x66, 0xbc, 0x53, 0x13, 0x1f, 0x3e, 0x13, 0x98, 0x1e, 0xbe,
  0xe8, 0x6d, 0x04, 0xbd, 0x0c, 0x00, 0x03, 0x3d, 0xce, 0xa7, 0xbf, 0x3d,
  0x5a, 0x41, 0xcd, 0xbd, 0x30, 0x9f, 0x59, 0x3c, 0xf2, 0x31, 0xa5, 0x3d,
  0x8c, 0xda, 0x1c, 0x3d, 0x18, 0x5e, 0xa4, 0x3c, 0xd0, 0x64, 0xbb, 0x3c,
  0x89, 0x4a, 0x22, 0x3e, 0xb0, 0xb3, 0x8c, 0xbc, 0x00, 0xd0, 0x9f, 0xb8,
  0x40, 0xee, 0x6d, 0xbd, 0x68, 0x30, 0x15, 0x3d, 0x37, 0x4d, 0x21, 0x3e,
  0x00, 0x49, 0xc4, 0x3c, 0x28, 0x1e, 0x46, 0x3d, 0x8a, 0xf6, 0x30, 0xbe,
  0x29, 0xae, 0x00, 0x3e, 0xb0, 0xb2, 0x88, 0x3c, 0x63, 0x2c, 0x04, 0x3e,
  0x1d, 0x00, 0x28, 0xbe, 0xcd, 0x1d, 0x46, 0x3e, 0x00, 0x46, 0x9d, 0x39,
  0x27, 0x7d, 0xd0, 0xbd, 0x00, 0x0f, 0x97, 0xbd, 0x40, 0xc3, 0x86, 0x3b,
  0x9a, 0xb1, 0xa5, 0x3d, 0x00, 0xb3, 0xa1, 0xba, 0x68, 0x26, 0x69, 0xbd,
  0x53, 0xdc, 0xcd, 0xbd, 0x68, 0x93, 0x44, 0xbd, 0x34, 0xd9, 0x6b, 0x3d,
  0xd0, 0x7f, 0xdf, 0xbc, 0x67, 0x22, 0xf1, 0xbd, 0x73, 0x69, 0x0c, 0x3e,
  0xd9, 0xb9, 0x2c, 0x3e, 0xb4, 0x9e, 0x17, 0x3d, 0x26, 0x16, 0x8f, 0x3d,
  0xaa, 0x24, 0x21, 0xbe, 0x74, 0xd1, 0x5f, 0x3d, 0x46, 0x39, 0xdd, 0x3d,
  0x06, 0xd1, 0xf3, 0x3d, 0x8d, 0x16, 0x2f, 0xbe, 0x2a, 0x02, 0x14, 0xbe,
  0xf3, 0x04, 0xb7, 0xbd, 0xed, 0x96, 0x09, 0x3e, 0x3a, 0x59, 0xbe, 0x3d,
  0xe2, 0xad, 0xd3, 0x3d, 0x51, 0x8d, 0x19, 0x3e, 0x37, 0x35, 0x42, 0xbe,
  0x00, 0x16, 0x33, 0xbd, 0x34, 0x13, 0x6c, 0xbd, 0x6e, 0x87, 0x83, 0x3d,
  0x9a, 0x39, 0x90, 0x3d, 0x13, 0xee, 0x21, 0xbe, 0x00, 0x06, 0xb6, 0xb9,
  0x6d, 0x81, 0x3e, 0xbe, 0x80, 0xcb, 0x24, 0xbd, 0x21, 0xc2, 0x07, 0x3e,
  0x8d, 0x12, 0xb5, 0xbd, 0x13, 0xa2, 0x06, 0x3e, 0x4d, 0x31, 0x25, 0x3e,
  0x87, 0xa2, 0x3e, 0xbe, 0xf4, 0x0c, 0x09, 0xbd, 0x83, 0x18, 0x20, 0xbe,
  0xa4, 0xf8, 0x70, 0x3d, 0xcc, 0x74, 0x2c, 0x3d, 0x58, 0x6e, 0x38, 0x3d,
  0x93, 0x54, 0xc4, 0xbd, 0xd7, 0xa1, 0x39, 0x3e, 0xe6, 0xef, 0x8f, 0xbd,
  0x00, 0xaf, 0x76, 0x3c, 0x66, 0x81, 0x22, 0xbe, 0xcc, 0xd0, 0x3c, 0xbd,
  0xbd, 0x96, 0x19, 0xbe, 0xcc, 0xd3, 0x39, 0xbd, 0x62, 0x98, 0x88, 0x3d,
  0x3a, 0x62, 0xd4, 0x3d, 0x5d, 0x32, 0x32, 0x3e, 0xd1, 0x94, 0x35, 0x3e,
  0x5d, 0x19, 0x3b, 0xbe, 0x74, 0x25, 0x7e, 0xbd, 0x4c, 0x11, 0x27, 0xbd,
  0x8c, 0xa1, 0x41, 0xbd, 0xfd, 0x5d, 0x31, 0x3e, 0x73, 0x53, 0xab, 0xbd,
  0xbd, 0xdc, 0x1f, 0xbe, 0x9a, 0x21, 0x04, 0xbe, 0x4e, 0x55, 0xb6, 0x3d,
  0xe3, 0x3c, 0x49, 0xbe, 0xa0, 0x6c, 0x05, 0x3c, 0x40, 0xb1, 0xd2, 0x3b,
  0x51, 0x4e, 0x00, 0x3e, 0x1a, 0x29, 0xa8, 0x3d, 0x12, 0x45, 0x88, 0x3d,
  0x7d, 0xe5, 0x3a, 0x3e, 0x00, 0x20, 0x51, 0x3a, 0x96, 0x1f, 0x1b, 0xbe,
  0x2e, 0x09, 0xbb, 0x3d, 0x60, 0x89, 0x1d, 0xbe, 0x6e, 0x7f, 0xdd, 0x3d,
  0x90, 0x03, 0x27, 0xbe, 0xa6, 0xc0, 0xd0, 0x3d, 0x24, 0x8e, 0x59, 0x3d,
  0xd9, 0xf0, 0x02, 0x3e, 0xe8, 0x96, 0xa8, 0x3c, 0x81, 0xfe, 0x2e, 0x3e,
  0x26, 0x60, 0xaf, 0x3d, 0x83, 0x4f, 0x18, 0x3e, 0x28, 0xde, 0x35, 0x3d,
  0x39, 0xff, 0x48, 0x3e, 0x2e, 0x9d, 0xbf, 0x3d, 0x46, 0x50, 0xf8, 0x3d,
  0x8d, 0x94, 0x23, 0xbe, 0xb9, 0x0d, 0x12, 0x3e, 0x00, 0xd1, 0xb0, 0xbc,
  0x53, 0xa6, 0x41, 0xbe, 0xb3, 0x0a, 0x18, 0xbe, 0x9d, 0x5a, 0x31, 0xbe,
  0x5a, 0xb0, 0xf9, 0xbd, 0x7d, 0xd3, 0x42, 0xbe, 0x60, 0x49, 0x2e, 0x3c,
  0xa0, 0x6a, 0xcf, 0xbd, 0x73, 0x78, 0x13, 0xbe, 0x00, 0x10, 0xb7, 0xbb,
  0xd3, 0xd4, 0x41, 0xbe, 0xb0, 0x9f, 0x49, 0xbe, 0x42, 0x43, 0xf2, 0x3d,
  0x04, 0x8f, 0x5e, 0x3d, 0x80, 0xb5, 0xa8, 0x3c, 0xb0, 0x80, 0xc2, 0xbc,
  0x60, 0x29, 0xac, 0xbd, 0xa6, 0x01, 0xea, 0x3d, 0x50, 0x19, 0x8c, 0x3c,
  0x8d, 0x65, 0xe5, 0xbd, 0x8d, 0x7a, 0xb8, 0xbd, 0x46, 0xca, 0x9b, 0x3d,
  0x98, 0x64, 0x49, 0xbd, 0x74, 0x6a, 0x08, 0x3d, 0x7a, 0x30, 0xe2, 0xbd,
  0xae, 0x31, 0xa1, 0x3d, 0x00, 0x58, 0xdb, 0xbd, 0xb7, 0x3e, 0x43, 0x3e,
  0xba, 0x5c, 0x3b, 0xbe, 0xa0, 0x7f, 0x55, 0x3c, 0x18, 0x6d, 0x51, 0xbd,
  0x18, 0x30, 0x15, 0xbd, 0xb4, 0x3d, 0x53, 0x3d, 0x4c, 0xc1, 0x3e, 0xbd,
  0xa0, 0x97, 0xf0, 0x3b, 0xc0, 0x64, 0xc3, 0x3b, 0x8e, 0x0a, 0x98, 0x3d,
  0x07, 0x9c, 0x0e, 0x3e, 0x70, 0x2c, 0x18, 0xbe, 0x50, 0x4a, 0xa6, 0xbc,
  0x40, 0xd2, 0x6a, 0xbd, 0x98, 0x09, 0x23, 0xbd, 0x00, 0x30, 0xf3, 0xb8,
  0x2d, 0xe5, 0x3a, 0xbe, 0xe8, 0x3b, 0x04, 0x3d, 0x58, 0x22, 0x09, 0x3d,
  0xb3, 0xf1, 0x18, 0xbe, 0x12, 0xa6, 0xc2, 0x3d, 0x80, 0x5a, 0x1a, 0xbe,
  0xc0, 0x38, 0x42, 0x3d, 0x0a, 0x3b, 0x05, 0xbe, 0x94, 0x57, 0x8d, 0xbd,
  0x86, 0x0a, 0xbf, 0x3d, 0xcc, 0x40, 0x01, 0xbd, 0x53, 0xcd, 0x44, 0xbe,
  0x12, 0xc5, 0xcd, 0x3d, 0x4d, 0x4d, 0x47, 0x3e, 0xd0, 0x88, 0x8f, 0xbc,
  0xa3, 0xf8, 0xa2, 0xbd, 0x66, 0x67, 0x9d, 0x3d, 0x6e, 0x7c, 0xbf, 0xbc,
  0x07, 0x55, 0x98, 0xbd, 0x0c, 0xe8, 0x2f, 0xbe, 0xbd, 0x6b, 0x16, 0x3e,
  0x43, 0x69, 0x74, 0x3d, 0x9a, 0x5a, 0xb2, 0x3d, 0x65, 0x69, 0x03, 0xbd,
  0xf8, 0x0a, 0x34, 0xbd, 0x90, 0x05, 0x98, 0x3d, 0xe5, 0xcf, 0x2c, 0xbd,
  0x99, 0x3f, 0x69, 0x3e, 0x4c, 0xc1, 0x8a, 0x3b, 0x6f, 0xd6, 0x01, 0xbe,
  0x3e, 0xf1, 0x11, 0x3e, 0xb5, 0x52, 0xa7, 0xbd, 0xa7, 0x80, 0x29, 0xbd,
  0xfa, 0x00, 0x1e, 0x3e, 0xf6, 0x10, 0x98, 0x3e, 0x1b, 0x5e, 0xb7, 0x3d,
  0xe5, 0x81, 0xf9, 0xbc, 0xa8, 0x4b, 0x13, 0x3f, 0xe7, 0x26, 0xfe, 0x3e,
  0x33, 0xc4, 0xc1, 0x3d, 0x02, 0x95, 0xb2, 0x3e, 0x35, 0x65, 0xca, 0x3e,
  0x7f, 0x55, 0xde, 0x3d, 0xec, 0x01, 0x10, 0x3f, 0x5a, 0x91, 0x1c, 0x3f,
  0xf2, 0x22, 0x37, 0x3e, 0x67, 0x1c, 0x0f, 0x3f, 0xea, 0xda, 0xe0, 0x3e,
  0xc0, 0x75, 0x63, 0xbc, 0x28, 0xa0, 0xb2, 0x3e, 0x24, 0x82, 0xfd, 0x3e,
  0xa9, 0xb6, 0x6f, 0x3e, 0x97, 0x45, 0x68, 0x3e, 0xa7, 0xa8, 0xb7, 0x3e,
  0x55, 0x45, 0x6f, 0x3e, 0xe8, 0xca, 0xd4, 0x3e, 0x70, 0x4c, 0x9d, 0x3e,
  0xd1, 0xcf, 0xa4, 0x3e, 0x1b, 0x2b, 0xf9, 0x3d, 0x33, 0x8d, 0xaf, 0x3d,
  0x9f, 0x4c, 0xae, 0x3d, 0x23, 0x84, 0x83, 0x3d, 0x5b, 0xba, 0x95, 0x3e,
  0xbb, 0xee, 0x7f, 0xbd, 0x73, 0xd4, 0x07, 0x3e, 0xcf, 0x69, 0xc8, 0x3d,
  0x3f, 0x7c, 0x24, 0x3e, 0xf1, 0xd5, 0xc4, 0x3d, 0x44, 0x38, 0xbc, 0x3e,
  0xf1, 0xd3, 0x65, 0x3e, 0xa7, 0x76, 0x8b, 0x3e, 0xf8, 0x7a, 0xd1, 0x3e,
  0x72, 0x3b, 0x91, 0x3d, 0x52, 0xd8, 0xdd, 0x3e, 0x77, 0x6e, 0xdf, 0x3d,
  0x0e, 0x61, 0x23, 0xbd, 0x6e, 0x58, 0x73, 0x3e, 0x9a, 0xa5, 0x05, 0x3e,
  0x0e, 0x91, 0x9b, 0x3e, 0x74, 0xb1, 0xbb, 0x3d, 0xda, 0x80, 0x37, 0x3e,
  0xdb, 0x90, 0x9c, 0x3e, 0xae, 0x48, 0x49, 0x3d, 0x45, 0xce, 0xb8, 0x3e,
  0x4a, 0xdd, 0x14, 0xbe, 0xfb, 0x2e, 0xe2, 0x3d, 0x98, 0x87, 0xf1, 0x3d,
  0xc7, 0xe3, 0xb8, 0x3c, 0x4f, 0x7e, 0x06, 0xbd, 0x9c, 0x43, 0x64, 0x3e,
  0x47, 0x71, 0x56, 0x3e, 0x61, 0x61, 0x39, 0x3d, 0x8d, 0xac, 0xa9, 0x3d,
  0x86, 0x5a, 0xbf, 0x3d, 0x4b, 0x6b, 0xc9, 0x3e, 0x20, 0xa6, 0x1b, 0x3e,
  0xf4, 0xea, 0xf6, 0xba, 0xaa, 0x47, 0x01, 0x3e, 0x25, 0x5a, 0x4b, 0x3e,
  0x9e, 0xf6, 0x12, 0xbe, 0xe5, 0x53, 0x6b, 0x3e, 0x04, 0xbf, 0xb9, 0x3c,
  0x57, 0xf8, 0xb0, 0x3d, 0x0c, 0x71, 0xbe, 0x3d, 0xd3, 0x1f, 0xdc, 0x3d,
  0xd6, 0x3c, 0x9a, 0xbd, 0xd3, 0x32, 0x58, 0x3e, 0x77, 0xfd, 0xba, 0x3d,
  0x0c, 0xd4, 0x67, 0xbe, 0x49, 0xa2, 0xce, 0x3d, 0x7b, 0x79, 0x4c, 0x3e,
  0x6c, 0xaf, 0x7e, 0x3d, 0xac, 0x5e, 0x65, 0x3e, 0xb8, 0xf6, 0x80, 0xbd,
  0xd6, 0xb7, 0x9d, 0xbe, 0x3f, 0xe0, 0x08, 0xbd, 0x7d, 0x6d, 0x97, 0xbc,
  0x2f, 0xd5, 0x50, 0xbe, 0xe4, 0x51, 0x20, 0x3d, 0x77, 0x43, 0xd9, 0xbc,
  0x50, 0x0d, 0x2a, 0xbe, 0x1e, 0xbd, 0x07, 0x3e, 0xf2, 0xc5, 0x3e, 0x3e,
  0xed, 0x73, 0x5e, 0xbe, 0x39, 0xf8, 0xd4, 0xbd, 0xa4, 0x83, 0xef, 0xbb,
  0xb4, 0xbf, 0x9b, 0xbe, 0x8a, 0xea, 0x05, 0x3e, 0x04, 0xd2, 0x99, 0xbc,
  0x8b, 0x1a, 0x99, 0xbe, 0x58, 0x9f, 0x00, 0x3e, 0x5e, 0x63, 0x74, 0x3d,
  0x7c, 0x55, 0xa1, 0xbe, 0x5e, 0x50, 0x81, 0x3e, 0x1c, 0x47, 0xe7, 0xbc,
  0x55, 0xb1, 0x99, 0xbe, 0x50, 0xd0, 0x92, 0x3e, 0x88, 0x0f, 0xbc, 0xbd,
  0xd5, 0xdd, 0xc9, 0xbd, 0xb8, 0x8c, 0x1e, 0x3d, 0x7c, 0x01, 0x3f, 0x3e,
  0x19, 0x9f, 0x1a, 0xbe, 0xa8, 0x8f, 0x8f, 0x3e, 0x3d, 0x73, 0xfb, 0x3d,
  0x23, 0x65, 0xb3, 0xbd, 0xa1, 0xe5, 0x11, 0x3e, 0x36, 0xa3, 0x2e, 0x3e,
  0x3f, 0x30, 0x26, 0x3d, 0xb1, 0x54, 0xde, 0x3d, 0x10, 0x89, 0x29, 0x3e,
  0x3f, 0xd1, 0x83, 0x3d, 0x5d, 0x2a, 0x32, 0xbc, 0x78, 0xb3, 0x19, 0x3e,
  0x05, 0xe9, 0x94, 0xbe, 0xd3, 0x1e, 0x12, 0x3e, 0x04, 0x1f, 0x91, 0xbb,
  0x1e, 0x99, 0xc8, 0xbc, 0x53, 0x46, 0x21, 0x3d, 0x6f, 0xad, 0x68, 0x3e,
  0x26, 0xb4, 0xef, 0x3c, 0x62, 0x52, 0x8a, 0x3d, 0x7b, 0xe5, 0x45, 0x3e,
  0xb7, 0x5c, 0x2e, 0xbd, 0x96, 0x2a, 0x81, 0x3d, 0xb8, 0x2d, 0xa9, 0x3d,
  0x19, 0x56, 0xc0, 0xbd, 0x48, 0x2a, 0x02, 0xbd, 0x15, 0xed, 0xf9, 0xbd,
  0x7d, 0xd7, 0x8a, 0xbd, 0xc0, 0xbc, 0xce, 0xbb, 0x70, 0x3e, 0x2b, 0xbc,
  0xb2, 0xe4, 0xd6, 0xbd, 0x25, 0x46, 0xc7, 0x3c, 0x65, 0xf8, 0xc6, 0x3d,
  0xd7, 0x1f, 0x30, 0x3c, 0xae, 0x61, 0x14, 0x3d, 0x30, 0x85, 0x04, 0x3e,
  0x51, 0x24, 0x39, 0xbe, 0x55, 0x8d, 0xdb, 0x3d, 0xd6, 0x6c, 0x36, 0xbd,
  0x99, 0x5d, 0xa4, 0x3d, 0x7d, 0x0c, 0x79, 0xbd, 0x84, 0x4e, 0x39, 0xbe,
  0x43, 0xfa, 0x0d, 0x3e, 0xbb, 0xe4, 0x4e, 0x3d, 0x11, 0xb2, 0xc6, 0x3d,
  0xbd, 0x5e, 0xb0, 0xbc, 0x71, 0x8c, 0xb2, 0x3d, 0x79, 0x9a, 0x52, 0xbe,
  0x67, 0x5b, 0x9c, 0x3d, 0x7f, 0x4b, 0xc0, 0xbc, 0xf3, 0x48, 0xe5, 0xbd,
  0x3d, 0xb7, 0x2b, 0x3e, 0xd5, 0xaf, 0x4b, 0xbe, 0xcb, 0x92, 0xe0, 0xbd,
  0x00, 0x5c, 0x14, 0x3e, 0xe2, 0xe0, 0xb8, 0xbd, 0x9b, 0xd2, 0x09, 0x3e,
  0x80, 0xbe, 0x52, 0x3d, 0x97, 0xa1, 0x15, 0xbe, 0x13, 0x4e, 0x27, 0x3e,
  0x2b, 0x01, 0x09, 0xbe, 0x35, 0x53, 0x8f, 0x3d, 0xb5, 0xf1, 0xf8, 0x3c,
  0x8e, 0x99, 0x2d, 0x3e, 0x90, 0xc8, 0x4d, 0xbe, 0x61, 0xfb, 0xc4, 0x3d,
  0x26, 0xae, 0xae, 0xbd, 0x99, 0x5c, 0x2d, 0xbe, 0xb9, 0xfd, 0xea, 0xbd,
  0xf7, 0xea, 0x51, 0x3d, 0x1d, 0x68, 0x50, 0xbe, 0xd7, 0xf9, 0x55, 0xbd,
  0x94, 0x69, 0x17, 0x3e, 0xde, 0xe0, 0x2c, 0xbe, 0x6a, 0x4b, 0x81, 0x3d,
  0x4f, 0xf6, 0x05, 0xbe, 0x50, 0x38, 0xa9, 0x3d, 0xaa, 0x02, 0x8d, 0xbd,
  0xc5, 0x99, 0x09, 0x3e, 0xbb, 0x02, 0x61, 0x3d, 0xdc, 0xeb, 0x13, 0xbd,
  0xe2, 0xc0, 0x04, 0x3e, 0x04, 0xf9, 0x26, 0x3e, 0xf0, 0x86, 0x65, 0xbd,
  0xfe, 0x85, 0x3f, 0xbe, 0xe1, 0x37, 0xdc, 0x3d, 0xee, 0x10, 0xad, 0xbd,
  0xfb, 0xe2, 0xbd, 0x3d, 0x0f, 0x5f, 0x87, 0xbb, 0x61, 0xd1, 0xd5, 0xbd,
  0xdd, 0xa0, 0xdd, 0xbc, 0x53, 0x42, 0x61, 0xbc, 0x60, 0x3d, 0xb9, 0x3d,
  0x93, 0xfe, 0x40, 0xbe, 0x00, 0x37, 0xdd, 0x3b, 0x1e, 0x53, 0x1f, 0xbe,
  0x10, 0x7a, 0x9a, 0x3d, 0x6a, 0x2c, 0xcc, 0x3d, 0x49, 0x04, 0x9b, 0xbd,
  0x42, 0x7b, 0x02, 0xbe, 0xce, 0xe1, 0x98, 0x3d, 0xed, 0x3c, 0x32, 0xbe,
  0xcd, 0x5b, 0x0c, 0x3e, 0x99, 0x74, 0x18, 0xbe, 0x07, 0x4c, 0xe4, 0x3d,
  0xc7, 0x5d, 0x3b, 0xbe, 0x4e, 0x5e, 0x4f, 0x3c, 0x6d, 0xd9, 0xe8, 0x3d,
  0x6a, 0xd7, 0x3c, 0xbd, 0x31, 0x2d, 0x35, 0x3e, 0x5e, 0x75, 0x35, 0x3e,
  0x9c, 0xf8, 0x3f, 0xbe, 0xf2, 0xc1, 0x3e, 0xbe, 0xc0, 0xd9, 0x11, 0xbb,
  0xc6, 0x6a, 0x95, 0x3d, 0xaf, 0xc0, 0x35, 0xbe, 0xe5, 0xdc, 0x03, 0xbc,
  0x73, 0x98, 0x19, 0xbe, 0x72, 0x16, 0x19, 0x3e, 0x60, 0x09, 0xf9, 0xbc,
  0xab, 0xce, 0x16, 0xbb, 0xd0, 0x72, 0xcf, 0x3d, 0x20, 0x3d, 0x31, 0xbe,
  0x72, 0x00, 0x2e, 0x3e, 0x2b, 0x09, 0x2d, 0xbe, 0x4b, 0x82, 0x6e, 0xba,
  0x9e, 0xdc, 0xdd, 0xbd, 0x80, 0xa6, 0x35, 0xbe, 0xf5, 0xef, 0x9e, 0x3b,
  0x0f, 0xae, 0xf1, 0xbb, 0x6f, 0xbb, 0xc8, 0xbd, 0x00, 0x7a, 0xa4, 0xbc,
  0xdb, 0xec, 0x19, 0xbe, 0x4d, 0x3d, 0xb9, 0xbd, 0xbd, 0x4e, 0xb4, 0xbd,
  0x2f, 0x99, 0x9c, 0x3c, 0x59, 0x96, 0xe4, 0xbd, 0x97, 0x08, 0x08, 0xbe,
  0xc8, 0xa4, 0xe6, 0x3d, 0x5c, 0x51, 0xfb, 0x3d, 0xde, 0x79, 0x6b, 0xbd,
  0x25, 0x63, 0xf8, 0x3a, 0x30, 0xb9, 0x6d, 0x3c, 0x12, 0x0a, 0x8e, 0xbb,
  0x14, 0x52, 0x1a, 0x3e, 0xb4, 0xef, 0xd4, 0xbd, 0xdf, 0xa8, 0x1a, 0x3e,
  0xc0, 0x10, 0x83, 0xbd, 0xe6, 0x3c, 0x60, 0x3d, 0xa8, 0xd6, 0x56, 0xbe,
  0xbe, 0x11, 0xd1, 0x3d, 0xd6, 0x74, 0x3e, 0xbd, 0xaf, 0x05, 0xe7, 0x3c,
  0x97, 0x50, 0xf1, 0x3d, 0xe2, 0x55, 0x13, 0x3c, 0xa6, 0x3e, 0x14, 0x3e,
  0x5e, 0x1f, 0xd8, 0xbd, 0x2d, 0xef, 0x42, 0xbd, 0x85, 0x92, 0x95, 0xbc,
  0x75, 0xb4, 0x3e, 0xbe, 0xd3, 0xf8, 0x0d, 0x3e, 0xa8, 0x54, 0x46, 0xbd,
  0x62, 0xec, 0x4b, 0xbe, 0x84, 0x82, 0x25, 0x3e, 0x7f, 0x2f, 0xdb, 0xbd,
  0x54, 0x8a, 0x45, 0xbe, 0x17, 0x1a, 0xa2, 0xbd, 0x77, 0xb5, 0x37, 0xbe,
  0xe6, 0x70, 0x40, 0xbe, 0xff, 0x0f, 0xbe, 0xbd, 0x77, 0x2b, 0x9c, 0x3b,
  0xe3, 0xea, 0x13, 0x3e, 0x01, 0xfc, 0x29, 0xbe, 0xce, 0xfe, 0x12, 0xbe,
  0x98, 0xb8, 0x09, 0x3e, 0x10, 0x81, 0xef, 0x3d, 0xf2, 0xae, 0x94, 0xbd,
  0x0f, 0x53, 0xe2, 0xbd, 0x8b, 0x0a, 0x73, 0x3c, 0x32, 0xaa, 0x45, 0xbd,
  0xe7, 0xb4, 0x25, 0xbe, 0x8a, 0x38, 0xe1, 0xbb, 0xf6, 0x9a, 0x2b, 0x3e,
  0xc3, 0xec, 0x84, 0x3d, 0x9a, 0x05, 0x04, 0x3e, 0x3b, 0xae, 0x35, 0xbe,
  0xec, 0x59, 0x9f, 0x3c, 0x96, 0x90, 0xdf, 0xbd, 0x72, 0x17, 0xc8, 0x3d,
  0xec, 0xb5, 0x52, 0x3d, 0xdb, 0x04, 0x7e, 0xbc, 0xe8, 0xd0, 0x48, 0xba,
  0x19, 0x95, 0x25, 0xbe, 0xc9, 0xde, 0x4d, 0xbe, 0xd1, 0x7f, 0x1d, 0xbe,
  0x3a, 0x44, 0xc1, 0x3c, 0x07, 0x48, 0x97, 0xbd, 0x7f, 0x7a, 0x23, 0xbe,
  0x53, 0x3c, 0xeb, 0x3c, 0x92, 0xf2, 0x25, 0xbe, 0x97, 0xd1, 0x99, 0x3d,
  0xd4, 0x2e, 0x08, 0x3d, 0x7c, 0xc6, 0x2e, 0x3e, 0x67, 0xeb, 0xcb, 0xbb,
  0xe6, 0xbe, 0x14, 0xbe, 0xcf, 0xd9, 0xb5, 0xbd, 0x41, 0x28, 0x00, 0x3e,
  0x3b, 0x4f, 0x19, 0x3c, 0x6d, 0x69, 0x89, 0xba, 0xf5, 0xaa, 0xad, 0xbd,
  0x3a, 0x34, 0x40, 0xbe, 0x4a, 0xf8, 0xfb, 0x3d, 0xab, 0x47, 0x2a, 0x3e,
  0x1c, 0x8c, 0xc4, 0xbd, 0x41, 0x8b, 0x1d, 0xbe, 0xb3, 0xe3, 0x2d, 0xbd,
  0xa2, 0x8b, 0xdd, 0xbd, 0x3e, 0x5c, 0x87, 0x3d, 0x02, 0xb0, 0x41, 0xbe,
  0xe2, 0xaf, 0x1e, 0xbd, 0xe6, 0xf7, 0xa0, 0x3d, 0x59, 0x3e, 0x0b, 0xbd,
  0x27, 0x20, 0x0a, 0xbe, 0x21, 0x62, 0x40, 0xbd, 0xe9, 0x14, 0x4d, 0xbe,
  0x76, 0x2a, 0x49, 0x3d, 0x4f, 0x08, 0xd4, 0xbd, 0xdf, 0x9d, 0xb3, 0xbd,
  0x71, 0xdb, 0xa0, 0x3c, 0x97, 0xe8, 0x18, 0xbe, 0xbe, 0x64, 0x4b, 0xbe,
  0x68, 0x48, 0xfe, 0x3b, 0xa3, 0xf9, 0x1a, 0x3e, 0x8e, 0xc5, 0x49, 0xbe,
  0xa8, 0x16, 0x3b, 0xbd, 0xd6, 0xfa, 0xf5, 0x3d, 0xfe, 0x76, 0x46, 0xbe,
  0xf3, 0x68, 0xec, 0x3d, 0x1f, 0xce, 0xff, 0x3c, 0xa9, 0xf1, 0x24, 0x3e,
  0xe0, 0x57, 0x1f, 0xbe, 0x42, 0x2d, 0xb5, 0x3c, 0xa0, 0x94, 0xb4, 0x3d,
  0xf7, 0x38, 0x41, 0x3e, 0xae, 0xdb, 0xd6, 0x3c, 0x5d, 0x15, 0x34, 0x3e,
  0x24, 0x29, 0x2f, 0x3d, 0xc4, 0x4a, 0xe8, 0x3d, 0xab, 0x13, 0x98, 0x3d,
  0x24, 0x8b, 0x19, 0xbe, 0x46, 0xb3, 0x20, 0x3b, 0xbb, 0xa9, 0x46, 0x3d,
  0xf4, 0xe1, 0x96, 0xbd, 0x11, 0x81, 0x75, 0xbd, 0xfc, 0xe7, 0xc5, 0x3d,
  0x9b, 0xc6, 0x47, 0xbe, 0x2a, 0xbc, 0xeb, 0xbd, 0x68, 0x35, 0x69, 0xbc,
  0x72, 0x13, 0xe0, 0xbd, 0xba, 0x54, 0x2b, 0xbe, 0x72, 0xcb, 0xf8, 0x3c,
  0xbb, 0x3e, 0x0a, 0xbe, 0xd4, 0x5c, 0xaf, 0xbb, 0xcd, 0x92, 0x84, 0xbd,
  0xc0, 0x67, 0x22, 0xbc, 0x86, 0xb4, 0xb7, 0x3c, 0x2e, 0x52, 0x93, 0xbd,
  0xd3, 0x33, 0x88, 0x3d, 0x68, 0x23, 0xf7, 0x3c, 0xb8, 0x51, 0xb5, 0xbd,
  0x69, 0x94, 0xa3, 0x3d, 0xce, 0x54, 0x4b, 0x3d, 0x7e, 0xf2, 0xf3, 0x3c,
  0x31, 0x86, 0x2b, 0xbd, 0xce, 0x3d, 0x05, 0xbe, 0x2f, 0x5b, 0x19, 0xbe,
  0x85, 0xce, 0x14, 0x3d, 0x97, 0xfe, 0xe9, 0x3c, 0xdb, 0xf5, 0x26, 0x3e,
  0xd3, 0x4c, 0x64, 0x3d, 0xd6, 0xb3, 0xc6, 0xbd, 0xc3, 0xbe, 0x27, 0xbd,
  0x71, 0x62, 0x4a, 0xbe, 0x7b, 0xa2, 0x95, 0xbc, 0xe7, 0x68, 0x0f, 0xbe,
  0x92, 0x2f, 0x9f, 0x3b, 0xd2, 0xf3, 0xc4, 0x3c, 0x47, 0xec, 0xe5, 0xbd,
  0x42, 0x18, 0xf2, 0x3d, 0xfb, 0x6a, 0x01, 0x3e, 0x27, 0x5a, 0x21, 0x3e,
  0xbe, 0x88, 0x81, 0xbd, 0x44, 0x80, 0x43, 0xbe, 0x34, 0x19, 0x96, 0x3d,
  0x2a, 0x11, 0x86, 0x3d, 0x7e, 0x64, 0x79, 0x3d, 0x12, 0x6f, 0x0e, 0xbe,
  0xa8, 0xaf, 0xd6, 0x3c, 0xa7, 0x61, 0xe5, 0x3d, 0xfc, 0xbf, 0x9b, 0xbc,
  0x55, 0x6a, 0xb1, 0x3d, 0x53, 0x9c, 0x09, 0xbe, 0xfa, 0x28, 0xb7, 0xbc,
  0x0e, 0x2d, 0xc5, 0x3d, 0x18, 0x0e, 0x08, 0xbe, 0x6a, 0x98, 0x24, 0x3e,
  0x3d, 0x7f, 0xf9, 0x3d, 0xff, 0xb4, 0x84, 0x3d, 0x9e, 0x62, 0x96, 0x3c,
  0xf2, 0x0c, 0xae, 0xbd, 0x03, 0x36, 0xc8, 0x3d, 0x4a, 0x7f, 0x0a, 0xbd,
  0xcc, 0x6d, 0xd4, 0x3d, 0x05, 0x50, 0x01, 0xbc, 0xab, 0x74, 0x56, 0xbe,
  0x05, 0xc9, 0x06, 0xbe, 0xc5, 0x28, 0x30, 0xbd, 0x12, 0xf0, 0x3e, 0xbe,
  0xd2, 0x42, 0x9b, 0xbd, 0xc1, 0xa3, 0xa9, 0x3d, 0xbf, 0xef, 0x3b, 0xbd,
  0x39, 0x41, 0x92, 0xbd, 0xf5, 0x1a, 0x11, 0xbc, 0x95, 0xc9, 0x5c, 0xbe,
  0xf1, 0x8b, 0x37, 0xbd, 0x10, 0x4c, 0x16, 0xbf, 0x6d, 0x7c, 0xef, 0xbe,
  0x50, 0x8a, 0x57, 0xbc, 0xac, 0x36, 0xec, 0xbe, 0x59, 0x11, 0xca, 0xbe,
  0x69, 0x62, 0x50, 0xbd, 0x27, 0xb2, 0x87, 0xbe, 0x0b, 0xda, 0xae, 0xbe,
  0xcc, 0x56, 0x04, 0xbe, 0x9c, 0x38, 0x18, 0xbf, 0xb7, 0x84, 0xe5, 0xbe,
  0x38, 0x7a, 0x65, 0xbd, 0xa3, 0x6c, 0x89, 0xbe, 0x30, 0x62, 0x86, 0xbe,
  0x77, 0x4e, 0x37, 0x3e, 0x37, 0xef, 0x6d, 0xbe, 0x58, 0x44, 0x58, 0xbe,
  0x81, 0x38, 0x42, 0x3d, 0xce, 0xc1, 0xf3, 0xbd, 0xa6, 0xc2, 0xaa, 0xbd,
  0x7a, 0x72, 0xd7, 0x3d, 0x6e, 0x56, 0x6e, 0xbe, 0xb3, 0x72, 0x27, 0xbd,
  0xfb, 0x62, 0xfc, 0x3d, 0xc3, 0x96, 0x88, 0xbe, 0x4f, 0xdb, 0x6b, 0xbe,
  0x15, 0xc9, 0xfd, 0xbc, 0x87, 0xa7, 0x02, 0xbc, 0x70, 0x09, 0x3f, 0xbd,
  0xa5, 0x49, 0xfc, 0x3d, 0x5d, 0x57, 0x94, 0x3d, 0xb4, 0xfb, 0x3f, 0x3d,
  0xac, 0x39, 0x97, 0xbd, 0x09, 0x4a, 0xec, 0x3c, 0x96, 0xdc, 0x0f, 0x3e,
  0x2b, 0x98, 0xd7, 0x3d, 0xd7, 0x7a, 0x64, 0xbe, 0x6a, 0x7d, 0x71, 0xbe,
  0x01, 0x31, 0xdb, 0xbd, 0x71, 0xa6, 0x37, 0xbe, 0x70, 0x06, 0x5e, 0x3b,
  0xfe, 0x4f, 0x21, 0xbe, 0x09, 0xb4, 0x0d, 0x3d, 0xa4, 0x68, 0x15, 0x3e,
  0xcd, 0x7a, 0xfe, 0x3d, 0x75, 0xaf, 0x92, 0xba, 0x5e, 0x3e, 0xa9, 0xbd,
  0xee, 0xed, 0x31, 0x3e, 0xce, 0xe6, 0x4f, 0x3d, 0x56, 0xa9, 0x1f, 0xbc,
  0x8c, 0x06, 0x31, 0x3c, 0x33, 0x0c, 0x68, 0xbe, 0x93, 0xd3, 0xe2, 0xbc,
  0x8f, 0xca, 0xb6, 0xbd, 0x57, 0x0e, 0x3e, 0xbe, 0x3d, 0xcd, 0x48, 0xbe,
  0x59, 0xc0, 0x90, 0x3d, 0x11, 0x27, 0xf5, 0x3c, 0xe1, 0x1f, 0xa0, 0xbc,
  0xf2, 0x2b, 0xb9, 0x3d, 0x9a, 0xb4, 0x0d, 0x3d, 0x68, 0x14, 0x20, 0xbe,
  0x8b, 0xe8, 0x99, 0x3d, 0xe4, 0x5b, 0xc8, 0xbd, 0x01, 0x07, 0x7d, 0x3d,
  0x45, 0x46, 0x0f, 0x3e, 0x7e, 0x6f, 0x9d, 0xbc, 0x0f, 0xb1, 0x98, 0xbe,
  0x7b, 0x38, 0xca, 0xbd, 0xc6, 0xe8, 0x8e, 0xbe, 0x55, 0xfe, 0x9b, 0xbe,
  0x28, 0x31, 0x30, 0xbe, 0x55, 0x54, 0xa4, 0xbe, 0x32, 0x42, 0x55, 0xbc,
  0x61, 0x4e, 0x3a, 0xbe, 0xb9, 0x45, 0x92, 0xbe, 0xda, 0xcb, 0x54, 0xbe,
  0x3e, 0xa2, 0x3b, 0xbe, 0x34, 0x67, 0xae, 0xbe, 0x03, 0xf7, 0x6c, 0xbe,
  0x5a, 0xec, 0xc0, 0xbb, 0x3c, 0xcf, 0xee, 0xbe, 0xe0, 0xe0, 0x50, 0xbe,
  0xe2, 0xe5, 0x43, 0x3d, 0xbb, 0x87, 0x4d, 0xbe, 0xd0, 0xfe, 0x89, 0xbe,
  0xd2, 0xbb, 0xa1, 0x3d, 0x76, 0xb4, 0x17, 0xbf, 0x80, 0xa7, 0x1c, 0xbf,
  0x87, 0xb9, 0xae, 0x3d, 0x2e, 0x42, 0x01, 0xbf, 0x09, 0xf5, 0x07, 0xbf,
  0x66, 0x23, 0x26, 0xbe, 0x27, 0xf5, 0xfc, 0xbe, 0xc7, 0x26, 0xed, 0xbe,
  0xd2, 0xb1, 0x15, 0x3e, 0x75, 0xf4, 0xf0, 0xbe, 0xf6, 0x8f, 0x14, 0xbf,
  0x3c, 0x4b, 0xc6, 0x3d, 0xf3, 0x9b, 0x0c, 0xbf, 0x15, 0x18, 0x8b, 0xbe,
  0xbc, 0xf6, 0x1f, 0x3e, 0x7a, 0x62, 0x00, 0xbf, 0xf1, 0x95, 0xa0, 0xbe,
  0xfa, 0x4b, 0x0b, 0x3e, 0x5b, 0xdc, 0x18, 0xbf, 0xbb, 0xcb, 0x00, 0xbf,
  0x8a, 0x29, 0xfb, 0xbc, 0x32, 0xc8, 0x01, 0xbf, 0x6a, 0x62, 0x3d, 0xbf,
  0xf3, 0xb5, 0xc9, 0xbc, 0xb0, 0x67, 0x1d, 0xbf, 0x65, 0xb4, 0x2d, 0xbf,
  0x32, 0x48, 0x58, 0xbd, 0x8b, 0x6f, 0x39, 0xbf, 0xfc, 0x94, 0xbe, 0xbe,
  0xfa, 0xad, 0x93, 0xbd, 0xc6, 0x9c, 0x1e, 0xbf, 0xbb, 0xd2, 0x30, 0xbf,
  0xe0, 0x97, 0x0e, 0x3e, 0x89, 0x70, 0x39, 0xbf, 0xcd, 0xc6, 0x23, 0xbf,
  0xaf, 0x04, 0xde, 0x3d, 0x35, 0x80, 0xec, 0xbe, 0xfd, 0x14, 0x13, 0xbf,
  0x1c, 0x15, 0x95, 0xbd, 0xfc, 0x54, 0xec, 0xbe, 0xf6, 0x8b, 0x05, 0xbf,
  0x2c, 0x55, 0x9a, 0x3d, 0x3c, 0x3c, 0x0d, 0xbf, 0xed, 0xc0, 0xf9, 0xbe,
  0xc9, 0x22, 0x33, 0x3e, 0x06, 0x9f, 0x06, 0xbf, 0x35, 0x5a, 0x2b, 0xbf,
  0xe7, 0x73, 0x9c, 0xbd, 0x71, 0xc0, 0x17, 0xbf, 0x3b, 0x39, 0x09, 0xbf,
  0x1e, 0x2b, 0xef, 0x3d, 0x73, 0x1e, 0xd2, 0xbe, 0xe9, 0x6e, 0x0d, 0xbf,
  0x13, 0x3e, 0xbf, 0xbd, 0x46, 0x55, 0xe2, 0xbe, 0x4a, 0xed, 0xdd, 0xbe,
  0x8a, 0x9d, 0x22, 0x3e, 0x1c, 0x2d, 0x0a, 0xbf, 0xe3, 0x38, 0xbd, 0xbe,
  0x08, 0x26, 0xec, 0x3d, 0x31, 0x2b, 0x06, 0xbf, 0x22, 0x89, 0xce, 0xbe,
  0x25, 0x21, 0x1c, 0xbd, 0xd1, 0x54, 0x1f, 0x3e, 0x7a, 0xcd, 0x08, 0x3e,
  0x7d, 0x00, 0x80, 0x3d, 0x7d, 0x6c, 0x44, 0x3e, 0xa4, 0x99, 0x15, 0xbd,
  0x5b, 0xcc, 0x5d, 0xbd, 0x38, 0x3b, 0x6a, 0x3d, 0x7c, 0xb7, 0x4a, 0xbe,
  0xa4, 0xdc, 0xde, 0xbd, 0x58, 0x2b, 0x5e, 0x3d, 0x08, 0x61, 0x27, 0x3e,
  0x0f, 0x54, 0x8f, 0xbd, 0xf4, 0xcb, 0x45, 0xbd, 0x3e, 0x00, 0x30, 0x3e,
  0xf3, 0x72, 0xd3, 0xbd, 0x98, 0x33, 0xe8, 0x3c, 0xf8, 0xc6, 0xd9, 0xbd,
  0x00, 0xb5, 0x76, 0xbc, 0x64, 0x94, 0x68, 0x3d, 0xb1, 0x33, 0xb7, 0xbd,
  0x6d, 0xd9, 0x0f, 0x3e, 0xa6, 0xc3, 0x1b, 0xbe, 0x4e, 0x26, 0x19, 0x3e,
  0xf6, 0x56, 0x02, 0xbe, 0xe0, 0x62, 0x13, 0xbe, 0xb8, 0x36, 0xcf, 0xbd,
  0x79, 0xf7, 0x05, 0x3e, 0x00, 0xca, 0xa8, 0x3b, 0x6b, 0xf4, 0xc5, 0xbd,
  0x52, 0x41, 0xd2, 0x3d, 0xcd, 0xdb, 0xba, 0xbd, 0x89, 0x83, 0xdc, 0x3d,
  0x73, 0xc7, 0xb6, 0xbd, 0x4d, 0x17, 0x49, 0xbe, 0x10, 0xcf, 0x3e, 0xbe,
  0xa8, 0xfe, 0x06, 0xbd, 0xb7, 0x3d, 0x21, 0x3e, 0x01, 0x05, 0xcf, 0x3d,
  0xe7, 0xc6, 0xd8, 0xbd, 0x30, 0x18, 0xb1, 0xbc, 0xba, 0x3c, 0x34, 0x3e,
  0xa0, 0x86, 0xb2, 0xbd, 0x47, 0x26, 0xac, 0xbd, 0xa5, 0x39, 0x2e, 0xbd,
  0xb9, 0x74, 0x42, 0x3e, 0x90, 0xa3, 0x1a, 0xbe, 0x4d, 0x70, 0x31, 0xbd,
  0xa0, 0x80, 0x08, 0x3c, 0x30, 0x62, 0x23, 0xbe, 0x71, 0xd3, 0x9d, 0x3d,
  0x93, 0xfe, 0x1f, 0xbe, 0x40, 0x47, 0x12, 0xbe, 0xde, 0x70, 0x26, 0xbb,
  0x13, 0x0a, 0xc9, 0xbd, 0xed, 0x0b, 0x49, 0x3e, 0x8b, 0x71, 0x85, 0xbd,
  0xe7, 0x8f, 0xbf, 0xbd, 0xa0, 0x41, 0x1a, 0xbc, 0xa4, 0xfc, 0xdc, 0xbd,
  0xba, 0x00, 0x2a, 0xbe, 0xa9, 0xa4, 0x2d, 0x3e, 0x53, 0xe0, 0xd3, 0x3c,
  0xa4, 0x64, 0x63, 0x3d, 0x71, 0x69, 0x22, 0x3e, 0x98, 0xbe, 0x25, 0x3e,
  0xf7, 0x1d, 0x3b, 0xbe, 0xc9, 0xb4, 0x0b, 0x3e, 0x61, 0x44, 0x8b, 0x3d,
  0x01, 0xa4, 0x1a, 0x3e, 0xd0, 0x9b, 0xf4, 0xbc, 0x8d, 0x65, 0x6a, 0xbd,
  0x9d, 0xce, 0x29, 0x3e, 0x2e, 0x67, 0x9e, 0x3d, 0x1c, 0x2b, 0x5f, 0xbb,
  0x99, 0xbb, 0x02, 0x3e, 0xa0, 0x3e, 0xbd, 0xbd, 0x20, 0x50, 0x3b, 0x3b,
  0x3a, 0x6b, 0x9e, 0x3d, 0xe8, 0x16, 0xb9, 0x3c, 0x0b, 0xfa, 0xae, 0xbd,
  0xb4, 0x9c, 0x8f, 0xbd, 0x34, 0xf7, 0x72, 0x3d, 0xa8, 0xcf, 0x06, 0x3e,
  0xae, 0x96, 0xa6, 0x3d, 0xfa, 0x7d, 0x14, 0xbe, 0x0d, 0x07, 0x2f, 0x3c,
  0x36, 0xca, 0x15, 0xbe, 0x58, 0xc6, 0x24, 0x3d, 0x69, 0x93, 0x2e, 0xbe,
  0x8d, 0x8b, 0x2a, 0xbe, 0x20, 0xe4, 0xc7, 0xbd, 0xf5, 0xd9, 0xc4, 0xbc,
  0x86, 0x11, 0xe6, 0x3d, 0x02, 0xfc, 0xd6, 0x3d, 0x40, 0x78, 0x81, 0xbd,
  0xc0, 0x28, 0xbe, 0xbd, 0xf2, 0x3c, 0xde, 0x3d, 0xa6, 0xaf, 0x8c, 0xbd,
  0x6d, 0xcc, 0xf2, 0xbd, 0x72, 0x69, 0xfe, 0x3d, 0x7a, 0x63, 0xb4, 0xbd,
  0x50, 0x98, 0xc2, 0xbc, 0x68, 0x3c, 0xa2, 0xbc, 0x28, 0x2d, 0x2d, 0x3d,
  0x24, 0xc0, 0x18, 0x3e, 0xcc, 0x3b, 0x5d, 0xbd, 0x7a, 0xe9, 0xfe, 0xbd,
  0x53, 0x4d, 0x16, 0xbe, 0xf3, 0x0a, 0x16, 0x3e, 0x30, 0xd6, 0x3b, 0x3e,
  0x5b, 0x80, 0x2c, 0x3e, 0xa4, 0x18, 0x38, 0x3d, 0xbb, 0xa4, 0x43, 0xbd,
  0xa7, 0x01, 0x9e, 0xbb, 0xa4, 0x75, 0x3a, 0xbe, 0xe2, 0xc5, 0x1e, 0xbe,
  0x5b, 0x2c, 0x02, 0x3e, 0x86, 0xb0, 0x22, 0xbe, 0x10, 0x96, 0x55, 0x3b,
  0x85, 0x35, 0xef, 0xbd, 0x4a, 0x73, 0xac, 0x3d, 0xf0, 0x43, 0x81, 0xbc,
  0xd8, 0xb1, 0xae, 0xbd, 0xea, 0xe8, 0xc4, 0x3d, 0xf9, 0x56, 0x36, 0xbe,
  0x0c, 0x2f, 0x92, 0xbd, 0xa2, 0x6d, 0xd8, 0xbd, 0x60, 0xfc, 0x38, 0xbe,
  0x02, 0x23, 0x40, 0x3d, 0x07, 0x1b, 0x2f, 0x3e, 0x15, 0x69, 0xf7, 0x3d,
  0xd1, 0xa0, 0x4a, 0xbe, 0xd5, 0xf0, 0xab, 0xbd, 0x19, 0x35, 0x48, 0xbe,
  0x69, 0x02, 0x30, 0x3e, 0x27, 0xc9, 0x16, 0x3c, 0x44, 0x3f, 0xbb, 0xbd,
  0xcb, 0x9d, 0x42, 0x3e, 0xfd, 0x56, 0xa9, 0x3d, 0x0a, 0x3e, 0x85, 0xbc,
  0x7b, 0xcd, 0x3a, 0xbe, 0xcd, 0x5c, 0x1b, 0x3e, 0x2c, 0xd7, 0xe6, 0x3c,
  0x79, 0xc9, 0x38, 0x3e, 0xe7, 0x69, 0x4c, 0xbe, 0x0a, 0x9d, 0x24, 0x3e,
  0x76, 0x0f, 0x7e, 0xbc, 0x84, 0x28, 0x2f, 0xbe, 0x3a, 0x93, 0x34, 0xbe,
  0x5f, 0x0c, 0xbc, 0xbd, 0xb2, 0x57, 0x5a, 0xbe, 0x19, 0x46, 0x8a, 0xbe,
  0xd8, 0x9d, 0x29, 0xbe, 0xbe, 0xf6, 0xe1, 0xbe, 0x48, 0xe3, 0xdd, 0xbd,
  0x5e, 0xce, 0x4a, 0x3d, 0x0f, 0x0f, 0xcf, 0xbd, 0x50, 0x89, 0x5b, 0xbd,
  0x45, 0xa8, 0x69, 0x3e, 0x41, 0x4e, 0x1b, 0xbf, 0x5f, 0x00, 0x9e, 0xbe,
  0x29, 0x1c, 0x23, 0x3e, 0xaf, 0x8d, 0xe4, 0xbd, 0x2e, 0xce, 0x08, 0xbe,
  0x03, 0xbc, 0x2c, 0x3d, 0xfb, 0x03, 0x26, 0xbd, 0xe7, 0x43, 0x2c, 0x3d,
  0x26, 0x2c, 0xae, 0xbd, 0x30, 0x6a, 0x8b, 0x3e, 0x53, 0xf3, 0x9f, 0x3c,
  0x43, 0x26, 0x3a, 0xbe, 0x37, 0x7f, 0x32, 0x3e, 0x9f, 0xf1, 0x4f, 0x3e,
  0x0d, 0x64, 0x4c, 0x3e, 0xa9, 0x4f, 0x7d, 0x3e, 0xc9, 0xe3, 0xbf, 0x3d,
  0x81, 0x70, 0xf6, 0x3d, 0xc6, 0xc0, 0x63, 0x3e, 0xb0, 0x14, 0xda, 0x3e,
  0x89, 0xb9, 0x10, 0x3e, 0xe0, 0xa2, 0xc0, 0x3e, 0x1b, 0x99, 0x55, 0x3e,
  0x1a, 0xdc, 0xcc, 0xbc, 0xcd, 0x06, 0x88, 0x3e, 0x4b, 0x3f, 0x71, 0x3e,
  0xed, 0x0a, 0x12, 0x3d, 0x63, 0x1b, 0xd6, 0x3e, 0xb4, 0x9c, 0x38, 0x3e,
  0xaa, 0x91, 0xe0, 0x3d, 0x9a, 0xbb, 0x8b, 0x3e, 0x60, 0xca, 0xa1, 0x3e,
  0x47, 0x49, 0xe3, 0xbc, 0x01, 0xe9, 0x2a, 0x3d, 0x79, 0x4c, 0x0c, 0x3c,
  0x0c, 0x21, 0xf4, 0x3c, 0x72, 0x1a, 0x2c, 0x3d, 0x7a, 0xf2, 0xa7, 0x3e,
  0x8b, 0xdf, 0x78, 0x3e, 0x79, 0x52, 0x1b, 0x3d, 0x74, 0xcf, 0xe6, 0xbc,
  0x44, 0x16, 0x07, 0xbe, 0xa1, 0xcd, 0x5a, 0x3e, 0xb8, 0xd3, 0xf6, 0xba,
  0xd2, 0x2b, 0x04, 0x3e, 0x37, 0x60, 0xd0, 0x3b, 0x63, 0xa8, 0x90, 0x3e,
  0x24, 0x5b, 0x0b, 0x3e, 0xb4, 0x33, 0xad, 0x3d, 0xba, 0x78, 0x46, 0x3e,
  0x7d, 0xd0, 0x05, 0x3e, 0x60, 0x65, 0x46, 0x3e, 0xe9, 0xe3, 0x54, 0x3e,
  0xc1, 0x41, 0x55, 0x3e, 0x74, 0x81, 0xcf, 0x3e, 0x40, 0x4c, 0x02, 0x3e,
  0x92, 0x05, 0x80, 0x3d, 0x23, 0x87, 0xad, 0x3d, 0xcd, 0xd7, 0x9f, 0x3e,
  0x17, 0x27, 0xca, 0x3d, 0xe6, 0xb4, 0x77, 0x3d, 0xc3, 0x5c, 0x83, 0x3e,
  0xa8, 0xd3, 0x18, 0xbe, 0x5c, 0x90, 0x7c, 0x3d, 0xe2, 0x3c, 0x86, 0x3e,
  0x0e, 0x5f, 0x16, 0xbe, 0x12, 0x93, 0x5c, 0x3e, 0xa5, 0x11, 0xd3, 0x3e,
  0x51, 0xe7, 0xde, 0xbd, 0x37, 0xa1, 0x30, 0x3e, 0x79, 0xdc, 0xb8, 0x3e,
  0x39, 0x02, 0x8f, 0xbd, 0x12, 0x4b, 0xdc, 0xbd, 0x3b, 0x72, 0x3f, 0x3e,
  0x70, 0xcc, 0x22, 0xbd, 0xec, 0x68, 0x6a, 0xbe, 0xe8, 0xef, 0x64, 0x3d,
  0x3f, 0xbd, 0xb9, 0xbd, 0xcf, 0x8e, 0x1c, 0xbf, 0xc5, 0xf7, 0x65, 0xbe,
  0x5c, 0xc0, 0x02, 0xbc, 0x7a, 0x96, 0xd3, 0xbe, 0xf2, 0x7d, 0x0d, 0xbf,
  0xe1, 0xf3, 0x48, 0x3e, 0xe4, 0x9f, 0xa3, 0xbe, 0x0a, 0x08, 0x04, 0xbf,
  0x83, 0x53, 0x1b, 0x3e, 0x49, 0xee, 0x2b, 0xbf, 0xc8, 0xbe, 0x55, 0xbe,
  0x61, 0xff, 0x1a, 0x3e, 0x81, 0x6e, 0xf1, 0xbe, 0xc8, 0xdb, 0x5d, 0xbe,
  0xf3, 0x39, 0x93, 0x3d, 0x2f, 0x31, 0xa5, 0xbe, 0x79, 0xf3, 0x29, 0xbe,
  0xd5, 0x5c, 0x3b, 0x3e, 0x8e, 0xc3, 0x02, 0xbf, 0x46, 0x9d, 0xdb, 0xbe,
  0xc4, 0xdd, 0x0e, 0xbe, 0x2e, 0x55, 0xdc, 0xbe, 0x54, 0x5b, 0x99, 0xbe,
  0x0f, 0x63, 0xb7, 0xbd, 0xb9, 0x7b, 0xae, 0xbe, 0x9c, 0x96, 0xd1, 0xbe,
  0x71, 0x5a, 0x98, 0xbc, 0x74, 0x1d, 0x1f, 0xbf, 0xbb, 0xc4, 0x93, 0xbe,
  0x37, 0xa7, 0x14, 0xbc, 0xc0, 0xad, 0x82, 0xbe, 0x67, 0xd3, 0xe2, 0xbe,
  0x80, 0xeb, 0x79, 0x3d, 0xf6, 0xff, 0x92, 0xbe, 0x49, 0x6a, 0x8d, 0xbe,
  0xf7, 0x00, 0xcd, 0x3d, 0x3f, 0x3a, 0xdf, 0xbe, 0x72, 0xec, 0x08, 0xbf,
  0x4e, 0x7a, 0x5a, 0xbc, 0xd3, 0x6a, 0x26, 0xbf, 0x6e, 0xd1, 0x94, 0xbe,
  0x9f, 0x01, 0x03, 0x3e, 0x38, 0x3a, 0xcd, 0xbe, 0xd6, 0xfa, 0x4d, 0xbe,
  0x40, 0xab, 0x4c, 0x3d, 0x72, 0x73, 0x20, 0xbf, 0xdb, 0x58, 0x18, 0xbe,
  0xae, 0x02, 0x07, 0xbe, 0xf9, 0x31, 0xaf, 0xbe, 0x9a, 0x66, 0xfa, 0xbe,
  0x36, 0x77, 0x0d, 0xbe, 0x5a, 0x9a, 0x1a, 0xbf, 0x14, 0x6f, 0xde, 0xbe,
  0x73, 0xa5, 0x4d, 0x3e, 0x50, 0x94, 0x26, 0xbf, 0xcd, 0xcf, 0x73, 0xbe,
  0xe8, 0x21, 0xc4, 0x3d, 0xc2, 0xf0, 0xe8, 0xbe, 0x00, 0x7b, 0x17, 0xbf,
  0x19, 0xd6, 0x0a, 0xbe, 0x00, 0xcd, 0x18, 0xbf, 0xab, 0xec, 0x0e, 0xbf,
  0x2a, 0x4e, 0x8c, 0x3d, 0x27, 0xfb, 0x99, 0x3e, 0x43, 0xa9, 0xb2, 0x3e,
  0x89, 0x63, 0x0d, 0x3e, 0xeb, 0xd2, 0xf6, 0x3e, 0xce, 0xcd, 0xa6, 0x3e,
  0xb8, 0x25, 0x3f, 0x3d, 0xac, 0x09, 0xdc, 0x3e, 0x14, 0x8b, 0x9c, 0x3e,
  0x08, 0xc3, 0x8e, 0x3d, 0x32, 0x2d, 0x3e, 0x3f, 0x76, 0xfb, 0xf2, 0x3e,
  0x1c, 0x0c, 0x0f, 0xbe, 0xbf, 0x03, 0xed, 0x3e, 0xe0, 0xd7, 0xcd, 0x3e,
  0x04, 0x67, 0x1e, 0x3e, 0x97, 0x54, 0xe7, 0x3e, 0xdc, 0x06, 0x8d, 0x3e,
  0xcb, 0xd7, 0xc9, 0xbc, 0x16, 0x80, 0x48, 0x3e, 0x0c, 0xa2, 0xf8, 0x3e,
  0x6d, 0x37, 0x08, 0xbb, 0xa0, 0x70, 0x68, 0x3e, 0x2a, 0x96, 0x3f, 0x3e,
  0x4e, 0x0f, 0x5e, 0xbd, 0xe5, 0xee, 0x92, 0x3e, 0x4d, 0x8c, 0x88, 0x3e,
  0x4d, 0x0b, 0x32, 0x3d, 0xb8, 0x26, 0x48, 0x3e, 0x33, 0xf3, 0x74, 0x3e,
  0xd7, 0x09, 0x28, 0xbb, 0xe9, 0x50, 0x69, 0x3e, 0x06, 0x7d, 0x3b, 0x3e,
  0x07, 0xcd, 0x47, 0xbd, 0xdf, 0x63, 0xa3, 0x3e, 0xb2, 0x5f, 0x2e, 0x3e,
  0x75, 0xfd, 0xf5, 0xbd, 0x97, 0x36, 0x8b, 0x3d, 0x48, 0x81, 0xc2, 0x3d,
  0x7b, 0xc4, 0x55, 0x3e, 0xb5, 0x45, 0xd9, 0x3e, 0x54, 0xb0, 0x8a, 0x3e,
  0x7a, 0x89, 0x92, 0xbd, 0x29, 0xba, 0x85, 0x3e, 0x42, 0x37, 0x43, 0x3e,
  0x6e, 0x57, 0x84, 0x3d, 0x86, 0x92, 0xe6, 0x3e, 0x88, 0x65, 0xf7, 0xbb,
  0xf7, 0x27, 0x17, 0xbe, 0x0a, 0x42, 0xe6, 0x3e, 0x2d, 0x5f, 0xa6, 0x3e,
  0x23, 0x2a, 0x8a, 0xbd, 0x13, 0x9f, 0xd4, 0x3e, 0x04, 0xb5, 0x78, 0x3e,
  0x65, 0x29, 0xb4, 0x3d, 0x71, 0x67, 0x2e, 0x3e, 0x35, 0x96, 0xaf, 0x3e,
  0x89, 0x92, 0xed, 0x3d, 0x8a, 0x09, 0x39, 0x3e, 0x3f, 0xf9, 0x7c, 0x3e,
  0xcc, 0xab, 0xe1, 0x3d, 0xa2, 0xef, 0xac, 0x3e, 0x25, 0x79, 0x8d, 0x3e,
  0x3a, 0xd5, 0xb4, 0xbb, 0x2d, 0x07, 0x41, 0x3e, 0x0d, 0x7c, 0xd8, 0x3e,
  0xf0, 0x64, 0x74, 0x3d, 0x2d, 0xee, 0xf1, 0x3e, 0xba, 0x7d, 0xa1, 0x3e,
  0xeb, 0x4e, 0xc1, 0xbd, 0xd4, 0xfc, 0xbd, 0x3e, 0x6e, 0xdf, 0x34, 0x3e,
  0x8c, 0x54, 0x22, 0x3e, 0xc1, 0x7c, 0x96, 0x3e, 0x98, 0x7b, 0xfd, 0x3e,
  0x91, 0x22, 0x3b, 0x3e, 0x61, 0x82, 0xbf, 0x3e, 0x8f, 0x60, 0x87, 0x3e,
  0xd3, 0x95, 0x09, 0x3e, 0xc0, 0x14, 0xfd, 0x3e, 0x0e, 0xb4, 0xc8, 0x3e,
  0xcf, 0xaf, 0x10, 0x3c, 0x8e, 0x82, 0xeb, 0x3e, 0xe2, 0x78, 0x8e, 0x3e,
  0xfb, 0x26, 0xa0, 0x3d, 0x84, 0x4d, 0xc8, 0x3e, 0xba, 0x43, 0xb2, 0x3e,
  0x85, 0x79, 0x58, 0x3e, 0xd5, 0x2a, 0x0c, 0x3f, 0x04, 0xaf, 0x40, 0x3f,
  0xb2, 0x21, 0xcd, 0xbc, 0xc0, 0x59, 0x47, 0x3f, 0xd8, 0x15, 0x62, 0x3f,
  0x80, 0xa1, 0x5f, 0x3e, 0xb2, 0x53, 0x57, 0x3f, 0xa1, 0xed, 0x00, 0x3f,
  0x33, 0x25, 0x31, 0x3e, 0x66, 0xba, 0x17, 0x3f, 0xe3, 0x15, 0xb9, 0x3e,
  0x17, 0x4a, 0x23, 0x3e, 0xe6, 0xa9, 0xf8, 0x3e, 0x6a, 0x84, 0x4b, 0x3e,
  0x1b, 0x1f, 0xed, 0x3d, 0x50, 0xa9, 0x40, 0x3f, 0xa3, 0x7b, 0x10, 0x3f,
  0xec, 0x6c, 0x01, 0xbe, 0xc6, 0xa3, 0x2e, 0x3f, 0x22, 0xb9, 0x1f, 0x3f,
  0xc5, 0x28, 0x24, 0x3d, 0xc8, 0xeb, 0x24, 0x3f, 0xc9, 0x98, 0xf6, 0x3e,
  0x89, 0x0e, 0x90, 0x3d, 0x87, 0x25, 0x37, 0x3f, 0xb9, 0xdd, 0x1f, 0x3f,
  0xd6, 0xeb, 0x39, 0xbe, 0x83, 0x57, 0x2d, 0x3f, 0x15, 0x89, 0x01, 0x3f,
  0x58, 0x7d, 0x37, 0x3e, 0x7a, 0x64, 0x19, 0x3f, 0xc3, 0xa9, 0x45, 0x3f,
  0x42, 0x5d, 0x30, 0xbe, 0x8a, 0x1e, 0x25, 0x3f, 0xd6, 0x3c, 0x4a, 0x3f,
  0x61, 0xd6, 0x70, 0x3d, 0xba, 0xa3, 0x56, 0x3f, 0xaf, 0xf8, 0x3d, 0x3f,
  0xf0, 0x5c, 0x11, 0x3d, 0xd7, 0x0f, 0x2a, 0x3f, 0x15, 0x7f, 0x1c, 0x3f,
  0xf4, 0x28, 0xc3, 0xbd, 0x67, 0x92, 0x21, 0x3f, 0xbc, 0x0f, 0xfb, 0x3e,
  0xe1, 0x78, 0x1a, 0xbe, 0xcc, 0x24, 0x1e, 0x3f, 0xe1, 0x86, 0x07, 0x3f,
  0x61, 0xb8, 0x5e, 0xbd, 0x4f, 0x25, 0x12, 0x3f, 0x0c, 0x57, 0xe2, 0x3e,
  0xfe, 0xa4, 0x08, 0x3e, 0x5e, 0x5a, 0x3a, 0x3f, 0xe3, 0x0c, 0x13, 0x3f,
  0xe4, 0x97, 0xe1, 0xbc, 0x80, 0x34, 0x19, 0x3f, 0xe1, 0xc3, 0xd1, 0x3e,
  0x1d, 0x1f, 0xb4, 0xbd, 0x77, 0xe8, 0x44, 0x3f, 0xfe, 0xba, 0x36, 0x3f,
  0x1e, 0x83, 0xeb, 0x3d, 0x68, 0xe0, 0xbe, 0x3e, 0xb7, 0x24, 0x09, 0x3f,
  0x0b, 0xdb, 0x81, 0xbd, 0x0b, 0x46, 0x5d, 0x3e, 0xfa, 0x5b, 0x5e, 0x3e,
  0x08, 0x4d, 0x38, 0x3e, 0x4f, 0x96, 0xcc, 0x3e, 0x23, 0x7f, 0x41, 0x3e,
  0x7b, 0x7b, 0x1d, 0x3e, 0xbf, 0xa2, 0x09, 0x3f, 0xf1, 0x68, 0xdb, 0x3e,
  0x36, 0xb1, 0xfa, 0x3d, 0x07, 0x72, 0x2c, 0x3f, 0x40, 0x82, 0xe2, 0x3e,
  0xbc, 0x86, 0x2e, 0xbe, 0x98, 0x6d, 0xb9, 0x3e, 0x78, 0xc8, 0xae, 0x3e,
  0x6c, 0xbf, 0x14, 0x3d, 0xba, 0xee, 0x08, 0x3f, 0x49, 0xf8, 0x9a, 0x3e,
  0xaf, 0x58, 0xaa, 0xbd, 0xfd, 0x3e, 0xa5, 0x3e, 0x07, 0x16, 0xea, 0x3e,
  0xe0, 0x97, 0x0a, 0xbe, 0x7e, 0x94, 0x98, 0x3e, 0x41, 0x2a, 0xc9, 0x3e,
  0x1d, 0xef, 0x23, 0xbe, 0xac, 0xcb, 0x03, 0x3f, 0x2f, 0x85, 0xeb, 0x3e,
  0xa1, 0x69, 0xce, 0x3d, 0xe1, 0x38, 0x7e, 0x3d, 0x7e, 0x81, 0xf8, 0xbd,
  0x0a, 0xe4, 0x18, 0xbe, 0xd9, 0x48, 0xbb, 0x3e, 0x9c, 0x32, 0x65, 0x3e,
  0x4d, 0xe4, 0x87, 0xbd, 0x41, 0x37, 0x86, 0x3e, 0x37, 0xa4, 0x94, 0x3e,
  0x70, 0xd3, 0x3e, 0x3e, 0x8d, 0x73, 0xcc, 0x3e, 0x3e, 0xce, 0x69, 0x3e,
  0x98, 0x6a, 0x03, 0xbe, 0xa0, 0x93, 0x0e, 0x3e, 0x19, 0x32, 0x9a, 0x3e,
  0x34, 0xc4, 0x95, 0xbd, 0xef, 0xd5, 0xc9, 0x3d, 0x42, 0xcd, 0xc1, 0x3d,
  0xee, 0x6b, 0x14, 0x3e, 0x17, 0x66, 0x08, 0x3e, 0xe2, 0x10, 0xcb, 0x3d,
  0x6c, 0xee, 0x3a, 0x3e, 0xb4, 0x9f, 0x94, 0x3e, 0xfb, 0x01, 0x7b, 0x3e,
  0xcd, 0x3a, 0x07, 0x3e, 0x22, 0x00, 0xdd, 0x3e, 0x44, 0x9e, 0x10, 0x3d,
  0xc4, 0xb1, 0xbc, 0xbb, 0x15, 0x8a, 0xee, 0x3e, 0xd8, 0x76, 0x87, 0x3e,
  0xb6, 0xc0, 0xa1, 0xbd, 0xe5, 0x35, 0x87, 0x3e, 0xfd, 0x38, 0x98, 0x3e,
  0x7d, 0xea, 0x08, 0x3d, 0xa3, 0x95, 0xe8, 0x3e, 0x5f, 0x02, 0x4a, 0x3e,
  0x38, 0x1d, 0x82, 0xbd, 0xb0, 0x30, 0x05, 0x3f, 0x4c, 0xea, 0xab, 0x3e,
  0xe8, 0x30, 0xee, 0x3d, 0xfd, 0xf3, 0xcd, 0x3e, 0xb9, 0x1e, 0x8d, 0x3e,
  0xca, 0xa2, 0xfc, 0x3d, 0x9f, 0x95, 0xde, 0x3e, 0x5a, 0x8c, 0xba, 0x3e,
  0x92, 0x1d, 0x70, 0x3e, 0x5b, 0xf7, 0x09, 0x3f, 0x7f, 0xb2, 0x28, 0x3e,
  0xea, 0x87, 0x62, 0x3e, 0xbe, 0xd6, 0x88, 0x3e, 0x37, 0xba, 0x88, 0x3e,
  0x2a, 0x56, 0x2d, 0x3e, 0x3f, 0xd3, 0x89, 0x3e, 0x4d, 0x6b, 0xb3, 0x3e,
  0x08, 0x36, 0x13, 0x3e, 0xc7, 0xba, 0x1c, 0x3f, 0x16, 0x7f, 0xbf, 0x3e,
  0x61, 0x47, 0x5a, 0x3e, 0xe2, 0x9e, 0x0d, 0x3f, 0xc4, 0xf7, 0x7f, 0x3e,
  0xef, 0x43, 0xdc, 0xbd, 0x64, 0xdc, 0x4d, 0x3f, 0x40, 0x81, 0x07, 0x3f,
  0x09, 0x3e, 0x0a, 0x3e, 0x0b, 0xee, 0x43, 0x3f, 0xc1, 0xde, 0x43, 0x3f,
  0x9b, 0xe3, 0x46, 0x3c, 0xea, 0xb3, 0x49, 0x3f, 0x1d, 0x3b, 0x23, 0x3f,
  0x5e, 0x40, 0xbd, 0x3d, 0xa5, 0x70, 0xb2, 0x3e, 0x6f, 0xe5, 0xdf, 0x3e,
  0xd7, 0x1d, 0x11, 0xbd, 0x35, 0x14, 0x1c, 0x3f, 0x6b, 0x21, 0x08, 0x3f,
  0x01, 0x45, 0x9d, 0xbd, 0xe5, 0x19, 0x1a, 0x3f, 0xc4, 0xfc, 0x0a, 0x3f,
  0xf0, 0x9f, 0x8f, 0xbb, 0x18, 0x96, 0xcf, 0x3e, 0x4f, 0x14, 0x08, 0x3f,
  0x00, 0x90, 0x77, 0x3d, 0x09, 0xea, 0x21, 0x3f, 0xec, 0x0f, 0xc7, 0x3e,
  0x90, 0x41, 0x67, 0x3b, 0x4c, 0xdd, 0x36, 0x3f, 0x62, 0x9c, 0xd0, 0x3e,
  0x3a, 0xdf, 0xe2, 0x3d, 0xaa, 0x4b, 0x21, 0x3f, 0x2e, 0x4f, 0xd8, 0x3e,
  0xc5, 0x82, 0xe5, 0xbd, 0x94, 0x8e, 0x11, 0x3f, 0x97, 0x89, 0x02, 0x3f,
  0x71, 0x3c, 0xef, 0xbc, 0x9c, 0x38, 0x54, 0x3f, 0x9c, 0x5a, 0xf1, 0x3e,
  0xc8, 0x7a, 0xf6, 0x3d, 0x6a, 0x9e, 0xfa, 0x3e, 0x5e, 0x89, 0x1b, 0x3f,
  0x9a, 0x31, 0x00, 0x3e, 0x5a, 0x54, 0x2e, 0x3f, 0x9e, 0x89, 0x4e, 0x3f,
  0x86, 0x44, 0x3e, 0xbd, 0x33, 0x5b, 0xfe, 0x3e, 0xb1, 0x58, 0x2e, 0x3f,
  0x1c, 0x8f, 0x73, 0xbc, 0xda, 0xc5, 0x3c, 0x3f, 0x8a, 0x02, 0x21, 0x3f,
  0xd4, 0x72, 0xe8, 0xbd, 0x43, 0x11, 0x0e, 0x3f, 0x19, 0x29, 0x02, 0x3f,
  0xac, 0xb7, 0x11, 0x3d, 0xcf, 0x95, 0x16, 0x3f, 0xf5, 0x93, 0x25, 0x3f,
  0x9b, 0x1d, 0xb7, 0xbd, 0x06, 0xa6, 0x1b, 0x3f, 0x8a, 0x35, 0x15, 0x3f,
  0x2a, 0x3d, 0x70, 0x3d, 0x43, 0xfc, 0xf2, 0x3e, 0x39, 0xd6, 0xc8, 0x3e,
  0x6a, 0xd6, 0x6f, 0xbb, 0xc7, 0x77, 0x0f, 0x3f, 0x79, 0xe1, 0xe8, 0x3e,
  0x37, 0x21, 0xab, 0xbd, 0x9d, 0xa8, 0x8a, 0x3c, 0x47, 0xd7, 0xb2, 0xbe,
  0xd6, 0xd8, 0x5f, 0x3e, 0x55, 0xfd, 0x80, 0xbe, 0xfd, 0x60, 0x0b, 0xbe,
  0x55, 0xbc, 0x77, 0xbd, 0x5a, 0x63, 0xc3, 0x3d, 0xbb, 0xfd, 0x8a, 0xbe,
  0x8a, 0x2c, 0x4e, 0xbe, 0xd9, 0xf9, 0xa5, 0xbe, 0x39, 0x4b, 0xc7, 0xbe,
  0x84, 0xd8, 0x5f, 0x3d, 0x26, 0x1f, 0x43, 0xbe, 0xb6, 0x78, 0x0b, 0xbf,
  0xd2, 0x81, 0x76, 0xbe, 0x27, 0x51, 0xa9, 0xbe, 0x0d, 0xf3, 0x24, 0xbf,
  0x3f, 0xc6, 0x49, 0xbe, 0xca, 0x59, 0xba, 0xbe, 0x96, 0xaa, 0x1c, 0xbf,
  0x06, 0x11, 0x7c, 0xbd, 0xee, 0x2a, 0x2c, 0xbf, 0xe8, 0x61, 0x28, 0xbf,
  0x4c, 0x40, 0x20, 0xbc, 0x1f, 0x32, 0x5a, 0xbf, 0x67, 0x32, 0xe1, 0xbe,
  0x36, 0xf9, 0x0c, 0xbd, 0x66, 0x54, 0x07, 0xbf, 0x20, 0xf8, 0xfb, 0xbd,
  0x5c, 0x19, 0xef, 0x3d, 0x9c, 0x83, 0x15, 0xbf, 0xe6, 0xa3, 0x94, 0xbe,
  0x1f, 0x99, 0x07, 0x3d, 0x71, 0xd9, 0x0b, 0xbf, 0x0b, 0x9c, 0xac, 0xbe,
  0x53, 0x67, 0x5d, 0x3c, 0x66, 0x02, 0x20, 0xbf, 0x70, 0x31, 0x80, 0xbe,
  0x7e, 0x25, 0x2a, 0x3d, 0x29, 0x87, 0xd6, 0xbe, 0xec, 0xd2, 0xe5, 0xbd,
  0xb9, 0x22, 0x16, 0xbe, 0xbc, 0x36, 0x0f, 0xbf, 0x1b, 0xf1, 0x99, 0xbd,
  0xb5, 0x26, 0x02, 0xbd, 0x0f, 0xe1, 0xac, 0xbe, 0x04, 0xc8, 0x89, 0xbe,
  0x97, 0xa1, 0x57, 0xbe, 0xd5, 0x3c, 0xfd, 0xbe, 0xe3, 0x21, 0xbf, 0xbe,
  0x07, 0xb6, 0x1f, 0x3d, 0x55, 0x2b, 0xe8, 0xbe, 0x60, 0xed, 0x98, 0xbe,
  0x41, 0x6f, 0xb3, 0x3d, 0x44, 0xd7, 0x07, 0xbf, 0x10, 0x0e, 0x9c, 0xbe,
  0xa5, 0xdd, 0x61, 0xbe, 0xf5, 0x7b, 0x94, 0xbe, 0x11, 0x62, 0x12, 0xbe,
  0x3d, 0xee, 0xf1, 0x3d, 0xc1, 0x6f, 0x10, 0xbf, 0xe9, 0x5f, 0xc2, 0xbe,
  0x87, 0x5b, 0xd5, 0x3d, 0x22, 0x9d, 0xe8, 0xbe, 0x5a, 0xab, 0xd8, 0xbe,
  0x41, 0x2a, 0x22, 0x3d, 0x3a, 0xe2, 0xb8, 0xbe, 0x16, 0x26, 0xf4, 0xbe,
  0x9b, 0x14, 0x1e, 0xbd, 0xf0, 0x3f, 0xc8, 0xbe, 0xd5, 0xb8, 0x10, 0xbf,
  0x7d, 0x08, 0x70, 0xbd, 0x3e, 0x91, 0x20, 0xbf, 0x6b, 0x28, 0x10, 0xbf,
  0x1b, 0xd3, 0x23, 0xbe, 0x28, 0x1b, 0x23, 0xbf, 0xeb, 0x98, 0x8d, 0xbe,
  0x9d, 0xae, 0xc2, 0xbd, 0x2b, 0x6b, 0x32, 0xbf, 0x6b, 0x8c, 0x9d, 0xbe,
  0xf5, 0xf4, 0x33, 0xbe, 0x04, 0x22, 0x1d, 0xbf, 0x2c, 0xfc, 0x24, 0xbf,
  0xea, 0xef, 0x3a, 0x3d, 0x40, 0x9c, 0x21, 0xbf, 0x00, 0x6d, 0x8d, 0xbe,
  0x8f, 0x25, 0x2d, 0xbd, 0x95, 0x0f, 0x25, 0xbf, 0x40, 0x52, 0x84, 0xbe,
  0x95, 0x72, 0xd1, 0x3c, 0xec, 0xa1, 0x53, 0xbf, 0xfa, 0x6a, 0x38, 0xbf,
  0x11, 0x6f, 0xa2, 0xbe, 0x34, 0xeb, 0x1f, 0xbf, 0x50, 0xc0, 0x50, 0xbf,
  0x2a, 0x85, 0x26, 0xbd, 0x25, 0x3a, 0x0b, 0xbf, 0xd2, 0x7a, 0x86, 0xbe,
  0x3f, 0xbf, 0x29, 0xbe, 0x8b, 0x99, 0x0b, 0xbf, 0x4f, 0xdb, 0x17, 0xbf,
  0xcc, 0xa6, 0xfb, 0xbd, 0x54, 0xa8, 0x29, 0xbf, 0x3a, 0x14, 0x46, 0xbf,
  0x16, 0x91, 0x04, 0xbd, 0x31, 0x42, 0x2b, 0xbf, 0x72, 0x8c, 0xd1, 0xbe,
  0x2a, 0x1a, 0x8b, 0x3e, 0xb7, 0xb9, 0xf1, 0xbe, 0xf5, 0xc6, 0x20, 0xbf,
  0x65, 0x53, 0x78, 0x3e, 0x63, 0x0a, 0x26, 0xbf, 0x6b, 0x39, 0x16, 0xbf,
  0x79, 0xb8, 0x53, 0x3e, 0xbf, 0x84, 0xfb, 0xbe, 0x4b, 0x8c, 0x13, 0xbf,
  0xfa, 0x55, 0x06, 0x3e, 0x7e, 0x9e, 0xca, 0xbe, 0x31, 0x49, 0x16, 0xbf,
  0xba, 0x69, 0x9d, 0x3e, 0x00, 0xfa, 0x06, 0xbf, 0xc6, 0xd7, 0x02, 0xbf,
  0x17, 0x7b, 0x89, 0x3e, 0xed, 0xd6, 0x26, 0xbf, 0x9f, 0xa1, 0xdd, 0xbe,
  0x3c, 0xb3, 0x93, 0x3d, 0xb1, 0xba, 0x0f, 0xbf, 0x88, 0xda, 0x95, 0xbe,
  0x98, 0x28, 0xeb, 0x3d, 0x5b, 0x93, 0x05, 0xbf, 0xc5, 0xc8, 0xdd, 0xbe,
  0xbe, 0x87, 0x14, 0x3e, 0x18, 0x2d, 0x20, 0xbf, 0x74, 0xb4, 0x9e, 0xbe,
  0xef, 0x68, 0x9c, 0x3a, 0x52, 0x49, 0x1a, 0xbf, 0x40, 0xc8, 0xbc, 0xbe,
  0xcb, 0x92, 0x8c, 0xbd, 0x51, 0x82, 0x39, 0xbe, 0xda, 0x5e, 0xd0, 0xbe,
  0xa1, 0x95, 0x18, 0x3e, 0xc0, 0x36, 0x9a, 0xbe, 0x54, 0x29, 0xc8, 0xbe,
  0xc4, 0x16, 0x4a, 0x3e, 0x0f, 0x00, 0xd2, 0xbe, 0x2e, 0xd5, 0x2a, 0xbe,
  0x6b, 0xd3, 0xfc, 0xbd, 0x06, 0x36, 0x44, 0xbd, 0x42, 0x72, 0x81, 0xbe,
  0xfe, 0x87, 0x05, 0x3e, 0x9e, 0x54, 0x31, 0xbe, 0x10, 0xbf, 0x2f, 0x3e,
  0xb2, 0x74, 0x8b, 0xbd, 0x2e, 0x1f, 0x4b, 0xbe, 0xed, 0x23, 0xe5, 0xbd,
  0x9c, 0xc8, 0x9b, 0x3d, 0x35, 0x5d, 0x34, 0x3e, 0x05, 0x9a, 0xaf, 0x3d,
  0xa0, 0x21, 0xcb, 0xbb, 0x25, 0xc7, 0xab, 0x3d, 0x47, 0xfd, 0xe6, 0xbd,
  0x3c, 0x56, 0x14, 0x3e, 0x05, 0x86, 0x54, 0x3c, 0x16, 0xc2, 0x39, 0xbe,
  0x12, 0xd4, 0xdc, 0x3d, 0x60, 0x8c, 0x40, 0xbe, 0xac, 0x09, 0x08, 0xbe,
  0xd7, 0xab, 0x30, 0xbe, 0xe7, 0x10, 0x09, 0x3e, 0x3a, 0x60, 0xd3, 0xbd,
  0xb0, 0xcc, 0x28, 0xbe, 0xa6, 0x98, 0x1f, 0xbe, 0x59, 0x92, 0xbf, 0x3d,
  0x63, 0xec, 0x12, 0x3e, 0x0d, 0xcc, 0xf9, 0xbd, 0x32, 0x10, 0x25, 0x3e,
  0xf2, 0xf9, 0x8a, 0x3d, 0x01, 0xc3, 0x42, 0x3e, 0x0a, 0xff, 0x00, 0xbd,
  0x00, 0x2b, 0x7e, 0xbc, 0xba, 0xbb, 0xec, 0xbd, 0x95, 0x80, 0x47, 0xbd,
  0x00, 0x89, 0xb7, 0xbc, 0x02, 0x3b, 0xa6, 0x3d, 0x21, 0xd7, 0xbc, 0x3d,
  0xfd, 0x09, 0x46, 0xbe, 0x47, 0x54, 0x39, 0xbe, 0xfa, 0x46, 0xd7, 0xbd,
  0xd0, 0x07, 0xb1, 0x3c, 0x18, 0xfd, 0x75, 0xbd, 0x7e, 0x64, 0x2b, 0x3e,
  0x30, 0x78, 0x45, 0xbc, 0x12, 0xb9, 0xd4, 0x3d, 0xe2, 0x3e, 0x12, 0xbe,
  0xcc, 0x34, 0x3c, 0x3d, 0x52, 0x84, 0xe5, 0x3d, 0x72, 0xe9, 0x3e, 0x3e,
  0x12, 0xc8, 0x87, 0x3d, 0x18, 0x99, 0x61, 0xbd, 0xca, 0xd5, 0xad, 0xbc,
  0x68, 0x33, 0xea, 0xbc, 0x12, 0x17, 0xbe, 0x3d, 0x12, 0xf8, 0x18, 0xbe,
  0x60, 0x00, 0x59, 0x3c, 0x1d, 0xe9, 0x09, 0x3e, 0x4d, 0xee, 0xa7, 0x3d,
  0x30, 0x90, 0xd4, 0x3c, 0x59, 0xb4, 0x39, 0x3e, 0x0d, 0x3c, 0x98, 0x3d,
  0x76, 0xb0, 0x17, 0xbe, 0x00, 0x53, 0x6a, 0xbd, 0x35, 0x9e, 0xd4, 0x3d,
  0x2e, 0x16, 0xc9, 0x3d, 0xa8, 0x5c, 0x10, 0xbd, 0x12, 0x1b, 0x4c, 0xbe,
  0x73, 0x25, 0xd3, 0xbd, 0x42, 0x02, 0xdf, 0x3d, 0xa3, 0x6d, 0x02, 0xbe,
  0x50, 0x73, 0x33, 0xbe, 0x06, 0x36, 0xf4, 0x3d, 0x2e, 0x63, 0x97, 0xbb,
  0x40, 0x8f, 0xda, 0x3b, 0x60, 0xe5, 0x57, 0xbc, 0x73, 0xe3, 0x0d, 0xbe,
  0x18, 0xe2, 0xca, 0x3c, 0x34, 0x0a, 0x6d, 0xbd, 0x19, 0xb6, 0xae, 0x3d,
  0x30, 0xe5, 0x79, 0x3c, 0x9d, 0x21, 0x1a, 0x3e, 0x5a, 0x79, 0x35, 0x3e,
  0x6d, 0x71, 0x9f, 0xbd, 0x4c, 0xf0, 0x73, 0xbd, 0x8d, 0x56, 0xe5, 0xbd,
  0xaa, 0x05, 0x14, 0xbe, 0x4d, 0x2b, 0x2b, 0x3e, 0xd3, 0x73, 0x1b, 0x3d,
  0xc2, 0x28, 0x9e, 0x3d, 0xe2, 0xba, 0xc6, 0x3d, 0xfa, 0x19, 0x17, 0x3e,
  0x80, 0x1a, 0xec, 0x3c, 0x29, 0x79, 0x3b, 0x3e, 0xff, 0xfd, 0x2c, 0xbe,
  0xb3, 0x75, 0x06, 0x3e, 0x31, 0x0b, 0x0b, 0x3e, 0xc9, 0x62, 0x19, 0x3e,
  0xf7, 0xc1, 0x3c, 0xbe, 0x93, 0x3a, 0x1b, 0xbe, 0x83, 0xd8, 0x49, 0xbe,
  0x00, 0xea, 0xec, 0xbb, 0x89, 0xd5, 0x39, 0x3e, 0xb0, 0xbb, 0x44, 0xbe,
  0x98, 0x34, 0xc2, 0xbc, 0x46, 0x4c, 0xd7, 0x3d, 0x03, 0x0d, 0x29, 0xbe,
  0x93, 0x63, 0x0a, 0xbe, 0x5a, 0x90, 0x14, 0xbe, 0x80, 0xf3, 0x20, 0xbe,
  0x91, 0x89, 0x65, 0x3d, 0xf4, 0x19, 0x49, 0xbd, 0xbf, 0xcf, 0x2c, 0xbe,
  0xa1, 0x97, 0xdb, 0xbd, 0xf3, 0x51, 0x08, 0x3e, 0xa1, 0x2c, 0xf0, 0x3d,
  0x0e, 0xf1, 0x29, 0xbc, 0x7a, 0x0f, 0xbd, 0xbd, 0x6c, 0xf4, 0xd7, 0x3c,
  0x92, 0x54, 0x3e, 0xbe, 0x14, 0x7b, 0x1e, 0xbe, 0x98, 0xf1, 0x34, 0x3c,
  0x07, 0x4c, 0x1a, 0xbc, 0xd6, 0x46, 0x94, 0xbd, 0x43, 0xc2, 0x36, 0xbe,
  0xce, 0x66, 0xdc, 0x3d, 0xb5, 0x74, 0xe9, 0xbc, 0x09, 0xc3, 0x08, 0xbe,
  0xc4, 0x37, 0xe5, 0x3d, 0xfc, 0x49, 0x66, 0x3d, 0x9e, 0x7b, 0x79, 0x3c,
  0x74, 0xe1, 0x5e, 0xbd, 0x05, 0x06, 0x7a, 0x3c, 0x07, 0xf4, 0xc2, 0xbd,
  0x59, 0x47, 0x0e, 0xbe, 0x08, 0x98, 0x3c, 0x3e, 0x02, 0x47, 0x02, 0x3d,
  0x9e, 0x0c, 0xd4, 0x3d, 0xd4, 0x64, 0x2e, 0xbd, 0xfc, 0x88, 0x3c, 0xbe,
  0x1c, 0x77, 0x7c, 0xbd, 0x51, 0xa9, 0x6f, 0xbd, 0xb6, 0xe6, 0xcb, 0xbb,
  0x58, 0x63, 0xb8, 0xbd, 0x75, 0x25, 0xde, 0xba, 0x43, 0x65, 0xf6, 0x3d,
  0xda, 0x5e, 0xc3, 0x3d, 0xe4, 0x52, 0x00, 0xbc, 0x21, 0xae, 0x72, 0xbd,
  0xbe, 0x12, 0xcb, 0xbd, 0x05, 0x98, 0xa5, 0x3d, 0xec, 0x04, 0xe0, 0x3d,
  0x69, 0x62, 0x9c, 0xbc, 0xfc, 0x79, 0x10, 0x3e, 0xae, 0x2b, 0xc1, 0xbc,
  0xa0, 0x7d, 0xa5, 0x3c, 0xd0, 0x93, 0x8f, 0x3d, 0xdf, 0x86, 0x5c, 0xbe,
  0x74, 0x34, 0xaf, 0x3d, 0x67, 0x28, 0x17, 0xbe, 0x08, 0x60, 0xd7, 0x3b,
  0x41, 0xcd, 0x88, 0x3d, 0x81, 0x5f, 0x49, 0xbd, 0x5b, 0xfb, 0xf0, 0x3d,
  0xb7, 0xf2, 0x5f, 0xbd, 0xd6, 0x20, 0x53, 0xbb, 0xce, 0xf9, 0x39, 0x3d,
  0xaf, 0x19, 0x03, 0x3e, 0x55, 0x62, 0x38, 0x3d, 0xa2, 0x94, 0x13, 0x3e,
  0x96, 0x7f, 0xef, 0x3d, 0x5f, 0xe4, 0x3c, 0xbe, 0xf1, 0x21, 0x94, 0x3d,
  0x70, 0x94, 0x63, 0x3d, 0xab, 0xcc, 0x28, 0x3e, 0x87, 0xdb, 0xf9, 0x3d,
  0x39, 0x44, 0xd8, 0xbd, 0xe4, 0x10, 0x22, 0x3e, 0xad, 0x70, 0xf2, 0x3c,
  0x22, 0x47, 0x53, 0xbe, 0x5d, 0xcf, 0x88, 0x3d, 0xb5, 0xbf, 0xce, 0x3d,
  0x91, 0x93, 0x37, 0xbe, 0x02, 0xce, 0x26, 0x3e, 0x51, 0xf8, 0x05, 0x3d,
  0x85, 0x3e, 0xe4, 0xbd, 0x03, 0x40, 0xea, 0x3d, 0xcc, 0xe4, 0x33, 0xbe,
  0x6f, 0x99, 0x75, 0x3d, 0x54, 0x6f, 0x46, 0x39, 0x80, 0xd6, 0xc0, 0xbd,
  0x96, 0x5f, 0x3b, 0xbe, 0xc4, 0x8a, 0x72, 0x3c, 0x50, 0xc7, 0x18, 0x3e,
  0x3a, 0x48, 0xcc, 0x3c, 0x86, 0x6c, 0xf1, 0xbd, 0x5f, 0x82, 0xc8, 0x3d,
  0x03, 0xc8, 0xc3, 0x3d, 0x90, 0x3d, 0x87, 0xbd, 0x9b, 0x27, 0x4d, 0xbe,
  0x23, 0x64, 0x22, 0xbe, 0xd1, 0x6d, 0xcc, 0xbd, 0xa3, 0x94, 0xaa, 0x3d,
  0x7d, 0xa4, 0x5f, 0x3d, 0xb7, 0xb6, 0x34, 0xbe, 0xcd, 0x9e, 0x3f, 0xbd,
  0x76, 0x2b, 0x26, 0xbe, 0xf9, 0xc3, 0x81, 0x3d, 0x3c, 0x2e, 0xf3, 0x3c,
  0x5a, 0x64, 0x05, 0xbe, 0xa6, 0x9b, 0x7a, 0xbd, 0x9a, 0x4b, 0x6d, 0x3d,
  0xfd, 0x9d, 0x95, 0xbd, 0xa5, 0x90, 0x3b, 0xbd, 0xd6, 0x4a, 0x38, 0x3e,
  0x7b, 0x59, 0x2e, 0x3b, 0x36, 0x4b, 0x67, 0xbd, 0x9b, 0x5d, 0x5a, 0x3d,
  0xe8, 0x64, 0xd5, 0x3b, 0x59, 0x81, 0x0b, 0x3e, 0xe9, 0xdf, 0x37, 0x3e,
  0xc5, 0x7d, 0x0a, 0x3e, 0xb1, 0x1e, 0xa8, 0xbd, 0xe8, 0x80, 0xb4, 0x3d,
  0xe0, 0x56, 0x14, 0x3e, 0x2b, 0x71, 0x6f, 0xbd, 0x7f, 0xd2, 0x12, 0xbb,
  0xaf, 0x9e, 0xce, 0xbd, 0x61, 0xfd, 0x0a, 0xbe, 0xb4, 0x4f, 0x8c, 0x3d,
  0xfe, 0xcc, 0xe8, 0x3d, 0xc6, 0x10, 0x6b, 0x3d, 0x3f, 0x9a, 0x95, 0x3d,
  0x6d, 0x55, 0x2a, 0x3e, 0x19, 0x00, 0x5b, 0x3c, 0x25, 0xb6, 0xa3, 0x3d,
  0x99, 0x03, 0x30, 0x3e, 0xf7, 0x8a, 0x68, 0xbd, 0xe6, 0x05, 0x15, 0xbe,
  0xa7, 0x97, 0x0b, 0xbe, 0x67, 0xa0, 0x55, 0xbe, 0x34, 0x5d, 0x0d, 0x3e,
  0x74, 0x80, 0x35, 0x3e, 0xd2, 0x61, 0xbe, 0xbc, 0x8e, 0xc0, 0x55, 0xbe,
  0xc0, 0xa4, 0x27, 0x3e, 0x91, 0x99, 0x47, 0xbc, 0x9a, 0x2b, 0xc3, 0x3d,
  0x44, 0x1b, 0x16, 0xbe, 0xaa, 0x70, 0x08, 0x3e, 0x31, 0x25, 0x48, 0xbe,
  0xa7, 0x3f, 0x45, 0xbe, 0x97, 0x00, 0x57, 0xbc, 0xa0, 0x13, 0x03, 0xbe,
  0x1e, 0xc6, 0x1b, 0x3e, 0xa0, 0x55, 0x62, 0x3d, 0xf0, 0x3d, 0xd7, 0x3c,
  0x99, 0xd6, 0xb7, 0xbd, 0xdc, 0x3f, 0x7d, 0x3d, 0xb2, 0xad, 0x07, 0xbe,
  0xe5, 0x94, 0x96, 0xbd, 0x03, 0x46, 0x1b, 0x3d, 0x99, 0xe4, 0xf0, 0xbd,
  0xcb, 0x5c, 0xdc, 0x3d, 0xfe, 0x9e, 0xf8, 0xbd, 0xe2, 0xe8, 0x31, 0x3e,
  0x9a, 0x51, 0x8d, 0xbc, 0xd6, 0x93, 0xc5, 0xbb, 0xd4, 0x58, 0xd3, 0xbd,
  0x7c, 0x53, 0x04, 0xbd, 0xdd, 0x54, 0x90, 0x3d, 0xf3, 0xe1, 0x9d, 0x3d,
  0xda, 0x32, 0xd5, 0xbd, 0x4f, 0x06, 0x1a, 0xbe, 0x0d, 0xfb, 0x20, 0x3e,
  0x67, 0x8e, 0xe0, 0xbc, 0xe4, 0x84, 0x56, 0xbd, 0x33, 0xe9, 0xb6, 0x3d,
  0xa1, 0x02, 0x86, 0xbc, 0x07, 0x00, 0x5a, 0xbe, 0xa0, 0xa6, 0xf7, 0x3d,
  0x2a, 0x11, 0x87, 0xbd, 0xa8, 0xc7, 0x70, 0x3d, 0x3e, 0x00, 0xe8, 0x3d,
  0xc1, 0x54, 0x02, 0x3e, 0x1d, 0x30, 0xe0, 0x3d, 0x66, 0xd6, 0x22, 0x3e,
  0x26, 0x5a, 0x86, 0xbc, 0x3f, 0x08, 0x4c, 0xbd, 0x41, 0xeb, 0x27, 0xbd,
  0x41, 0x16, 0x7a, 0xbd, 0x1f, 0x38, 0x3c, 0xbe, 0xef, 0xd1, 0xa2, 0xbd,
  0xa6, 0x0e, 0x31, 0xbe, 0x6d, 0x87, 0x06, 0xbe, 0x32, 0x38, 0x37, 0xbe,
  0xa1, 0xc6, 0x0a, 0x3e, 0xd8, 0x96, 0x65, 0xbc, 0xe3, 0x38, 0x42, 0xbe,
  0x88, 0x5e, 0x04, 0xbe, 0x72, 0xab, 0x74, 0xbc, 0x08, 0x52, 0x0b, 0x3d,
  0x82, 0xfe, 0xff, 0xff, 0x10, 0x00, 0x00, 0x00, 0x04, 0x00, 0x00, 0x00,
  0x14, 0x00, 0x00, 0x00, 0x30, 0x00, 0x00, 0x00, 0x02, 0x00, 0x00, 0x00,
  0x14, 0x00, 0x00, 0x00, 0x96, 0x00, 0x00, 0x00, 0x1b, 0x00, 0x00, 0x00,
  0x73, 0x65, 0x71, 0x75, 0x65, 0x6e, 0x74, 0x69, 0x61, 0x6c, 0x5f, 0x33,
  0x2f, 0x64, 0x65, 0x6e, 0x73, 0x65, 0x5f, 0x36, 0x2f, 0x4d, 0x61, 0x74,
  0x4d, 0x75, 0x6c, 0x00, 0x7c, 0xfe, 0xff, 0xff, 0x8a, 0xff, 0xff, 0xff,
  0x04, 0x00, 0x00, 0x00, 0x0c, 0x00, 0x00, 0x00, 0xdf, 0xf8, 0x05, 0x3c,
  0x19, 0x33, 0xa0, 0xbd, 0x2e, 0x79, 0x4d, 0x3d, 0xde, 0xfe, 0xff, 0xff,
  0x10, 0x00, 0x00, 0x00, 0x03, 0x00, 0x00, 0x00, 0x10, 0x00, 0x00, 0x00,
  0x48, 0x00, 0x00, 0x00, 0x01, 0x00, 0x00, 0x00, 0x03, 0x00, 0x00, 0x00,
  0x34, 0x00, 0x00, 0x00, 0x73, 0x65, 0x71, 0x75, 0x65, 0x6e, 0x74, 0x69,
  0x61, 0x6c, 0x5f, 0x33, 0x2f, 0x64, 0x65, 0x6e, 0x73, 0x65, 0x5f, 0x37,
  0x2f, 0x42, 0x69, 0x61, 0x73, 0x41, 0x64, 0x64, 0x2f, 0x52, 0x65, 0x61,
  0x64, 0x56, 0x61, 0x72, 0x69, 0x61, 0x62, 0x6c, 0x65, 0x4f, 0x70, 0x2f,
  0x72, 0x65, 0x73, 0x6f, 0x75, 0x72, 0x63, 0x65, 0x00, 0x00, 0x00, 0x00,
  0x40, 0xff, 0xff, 0xff, 0x00, 0x00, 0x06, 0x00, 0x08, 0x00, 0x04, 0x00,
  0x06, 0x00, 0x00, 0x00, 0x04, 0x00, 0x00, 0x00, 0x50, 0x00, 0x00, 0x00,
  0x00, 0x00, 0x00, 0x00, 0x00, 0x00, 0x00, 0x00, 0x00, 0x00, 0x00, 0x00,
  0x00, 0x00, 0x00, 0x00, 0x51, 0x00, 0xe7, 0x3d, 0xc6, 0x73, 0x37, 0xbc,
  0xcb, 0xb8, 0x00, 0xbd, 0x00, 0x00, 0x00, 0x00, 0x00, 0x00, 0x00, 0x00,
  0xbc, 0x32, 0x0f, 0x3e, 0xcc, 0x33, 0x60, 0xbc, 0x95, 0x1e, 0xea, 0xbc,
  0xa5, 0xc6, 0xb0, 0xbb, 0x0b, 0xc1, 0xc4, 0xbb, 0x1f, 0xc2, 0x1f, 0x3d,
  0xa0, 0xe2, 0x0e, 0x3d, 0xe5, 0xdc, 0xa2, 0x3c, 0xaa, 0x4f, 0x38, 0x3d,
  0x2e, 0xe0, 0x13, 0xbc, 0x14, 0x38, 0x90, 0xbc, 0x9e, 0xff, 0xff, 0xff,
  0x10, 0x00, 0x00, 0x00, 0x02, 0x00, 0x00, 0x00, 0x10, 0x00, 0x00, 0x00,
  0x4c, 0x00, 0x00, 0x00, 0x01, 0x00, 0x00, 0x00, 0x14, 0x00, 0x00, 0x00,
  0x34, 0x00, 0x00, 0x00, 0x73, 0x65, 0x71, 0x75, 0x65, 0x6e, 0x74, 0x69,
  0x61, 0x6c, 0x5f, 0x33, 0x2f, 0x64, 0x65, 0x6e, 0x73, 0x65, 0x5f, 0x36,
  0x2f, 0x42, 0x69, 0x61, 0x73, 0x41, 0x64, 0x64, 0x2f, 0x52, 0x65, 0x61,
  0x64, 0x56, 0x61, 0x72, 0x69, 0x61, 0x62, 0x6c, 0x65, 0x4f, 0x70, 0x2f,
  0x72, 0x65, 0x73, 0x6f, 0x75, 0x72, 0x63, 0x65, 0x00, 0x00, 0x00, 0x00,
  0x04, 0x00, 0x06, 0x00, 0x04, 0x00, 0x00, 0x00, 0x00, 0x00, 0x0e, 0x00,
  0x14, 0x00, 0x04, 0x00, 0x00, 0x00, 0x08, 0x00, 0x0c, 0x00, 0x10, 0x00,
  0x0e, 0x00, 0x00, 0x00, 0x10, 0x00, 0x00, 0x00, 0x01, 0x00, 0x00, 0x00,
  0x14, 0x00, 0x00, 0x00, 0x24, 0x00, 0x00, 0x00, 0x02, 0x00, 0x00, 0x00,
  0x03, 0x00, 0x00, 0x00, 0x96, 0x00, 0x00, 0x00, 0x0d, 0x00, 0x00, 0x00,
  0x64, 0x65, 0x6e, 0x73, 0x65, 0x5f, 0x36, 0x5f, 0x69, 0x6e, 0x70, 0x75,
  0x74, 0x00, 0x00, 0x00, 0xfc, 0xff, 0xff, 0xff, 0x04, 0x00, 0x04, 0x00,
  0x04, 0x00, 0x00, 0x00
};
